<unk>	0
<s>	0
</s>	0
en	-0
▁d	-1
er	-2
es	-3
an	-4
on	-5
▁de	-6
in	-7
▁l	-8
▁p	-9
▁v	-10
el	-11
ti	-12
et	-13
▁a	-14
▁s	-15
▁c	-16
re	-17
or	-18
is	-19
ur	-20
▁m	-21
ar	-22
ent	-23
it	-24
▁t	-25
▁o	-26
al	-27
▁h	-28
▁b	-29
qu	-30
ij	-31
ge	-32
at	-33
▁en	-34
▁�	-35
ati	-36
▁van	-37
▁in	-38
▁n	-39
ch	-40
▁w	-41
▁e	-42
ing	-43
om	-44
ou	-45
le	-46
un	-47
ie	-48
te	-49
ra	-50
▁la	-51
il	-52
oor	-53
ro	-54
ment	-55
▁f	-56
▁z	-57
ont	-58
st	-59
de	-60
den	-61
▁2	-62
▁het	-63
ers	-64
▁le	-65
▁qu	-66
ation	-67
▁des	-68
▁r	-69
our	-70
▁les	-71
ant	-72
ve	-73
▁g	-74
▁20	-75
▁et	-76
▁ge	-77
aar	-78
▁een	-79
ol	-80
ic	-81
est	-82
▁op	-83
oe	-84
id	-85
gen	-86
▁201	-87
us	-88
der	-89
ans	-90
▁u	-91
tion	-92
▁voor	-93
▁k	-94
as	-95
ver	-96
▁au	-97
▁par	-98
▁ver	-99
▁un	-100
▁re	-101
▁te	-102
and	-103
▁j	-104
ai	-105
si	-106
▁D	-107
res	-108
▁con	-109
ien	-110
cht	-111
ijk	-112
ot	-113
▁C	-114
▁pro	-115
ig	-116
ce	-117
▁du	-118
▁pr	-119
▁(	-120
▁L	-121
▁B	-122
ff	-123
▁pour	-124
se	-125
ken	-126
les	-127
ct	-128
am	-129
ous	-130
ale	-131
ne	-132
ag	-133
▁aan	-134
▁be	-135
op	-136
ven	-137
▁com	-138
▁er	-139
me	-140
▁dat	-141
au	-142
que	-143
▁1	-144
ci	-145
▁die	-146
▁st	-147
ul	-148
ijn	-149
▁H	-150
he	-151
▁on	-152
os	-153
im	-154
▁W	-155
▁wor	-156
pl	-157
▁pl	-158
▁wer	-159
uel	-160
ir	-161
ke	-162
▁S	-163
ist	-164
▁mo	-165
▁dans	-166
2.	-167
elijk	-168
▁I	-169
▁met	-170
▁al	-171
▁is	-172
tie	-173
1.	-174
▁que	-175
▁om	-176
▁P	-177
▁over	-178
ingen	-179
▁E	-180
?2.	-181
▁est	-182
ri	-183
▁se	-184
▁ont	-185
.1.	-186
ter	-187
▁an	-188
aat	-189
ru	-190
urs	-191
ten	-192
ze	-193
▁une	-194
di	-195
▁me	-196
ab	-197
gi	-198
ad	-199
▁he	-200
3.	-201
atie	-202
onn	-203
vous	-204
ite	-205
▁A	-206
▁zijn	-207
▁sur	-208
iet	-209
▁Q	-210
ap	-211
orm	-212
ac	-213
▁worden	-214
▁pers	-215
ait	-216
elle	-217
len	-218
▁uit	-219
▁cont	-220
tre	-221
▁per	-222
ier	-223
▁sont	-224
'�	-225
▁ce	-226
bre	-227
heid	-228
aire	-229
du	-230
ort	-231
ele	-232
pr	-233
▁Bel	-234
vo	-235
pe	-236
sen	-237
aal	-238
bl	-239
che	-240
▁qui	-241
ik	-242
?3.	-243
ak	-244
▁De	-245
ut	-246
ations	-247
og	-248
eld	-249
▁ch	-250
▁ou	-251
▁tot	-252
▁V	-253
elles	-254
▁Quel	-255
ons	-256
ang	-257
ction	-258
▁bij	-259
▁Hoe	-260
ft	-261
elke	-262
▁niet	-263
oi	-264
▁su	-265
end	-266
veel	-267
▁tra	-268
ais	-269
▁F	-270
ette	-271
▁ex	-272
▁ser	-273
em	-274
▁Com	-275
▁pas	-276
ds	-277
▁M	-278
be	-279
we	-280
▁ces	-281
▁pol	-282
aan	-283
▁of	-284
▁conc	-285
▁G	-286
ens	-287
▁O	-288
ok	-289
rij	-290
ins	-291
erd	-292
▁In	-293
▁onder	-294
age	-295
▁di	-296
▁Z	-297
▁ter	-298
▁deze	-299
▁bet	-300
ue	-301
inist	-302
▁N	-303
nen	-304
▁plus	-305
▁R	-306
val	-307
▁K	-308
ques	-309
ern	-310
ces	-311
▁ra	-312
▁door	-313
entre	-314
els	-315
mb	-316
▁aux	-317
elen	-318
port	-319
4.	-320
dt	-321
▁-	-322
bien	-323
▁ac	-324
ond	-325
rie	-326
▁ne	-327
▁2015	-328
▁bes	-329
▁af	-330
ux	-331
ure	-332
une	-333
ert	-334
▁jaar	-335
aires	-336
uit	-337
ys	-338
▁ann	-339
▁so	-340
form	-341
▁comm	-342
▁cette	-343
▁Belgi	-344
▁2016	-345
eren	-346
iv	-347
).	-348
erk	-349
▁T	-350
ils	-351
aux	-352
ice	-353
vol	-354
ast	-355
▁waar	-356
▁ad	-357
omen	-358
▁vol	-359
▁Hoeveel	-360
ail	-361
sten	-362
raag	-363
par	-364
urop	-365
eft	-366
▁pu	-367
▁cons	-368
▁ar	-369
▁nom	-370
ische	-371
vez	-372
ings	-373
tij	-374
icht	-375
dien	-376
ance	-377
lement	-378
▁bel	-379
vent	-380
ain	-381
org	-382
▁Le	-383
▁tr	-384
▁"	-385
▁pa	-386
▁im	-387
ise	-388
?4.	-389
ures	-390
ments	-391
▁dit	-392
oc	-393
elijke	-394
▁personn	-395
▁inter	-396
ijf	-397
ate	-398
▁werden	-399
▁nombre	-400
▁zou	-401
iss	-402
▁toe	-403
lijk	-404
▁heb	-405
ossi	-406
ieu	-407
ere	-408
▁wordt	-409
po	-410
uis	-411
▁men	-412
▁eff	-413
▁ook	-414
ud	-415
um	-416
▁res	-417
otre	-418
reg	-419
▁entre	-420
▁La	-421
▁pe	-422
▁we	-423
▁2014	-424
ants	-425
tions	-426
ves	-427
tat	-428
ill	-429
▁poli	-430
▁ma	-431
ours	-432
▁werd	-433
tes	-434
▁ap	-435
tif	-436
▁comp	-437
▁serv	-438
ell	-439
▁heeft	-440
ering	-441
▁Wat	-442
ges	-443
pen	-444
van	-445
▁dis	-446
▁werk	-447
act	-448
iteit	-449
▁Les	-450
▁meer	-451
ble	-452
ique	-453
▁trav	-454
▁zo	-455
dra	-456
▁aut	-457
▁person	-458
▁kun	-459
▁publ	-460
sion	-461
ilit	-462
▁reg	-463
ente	-464
ob	-465
▁Dans	-466
ises	-467
tit	-468
ben	-469
▁2017	-470
mes	-471
ative	-472
▁3	-473
▁vers	-474
ors	-475
ents	-476
oen	-477
▁ze	-478
▁naar	-479
▁gr	-480
▁geb	-481
ich	-482
dere	-483
ici	-484
▁Welke	-485
vec	-486
jet	-487
▁welke	-488
▁Combien	-489
▁soci	-490
la	-491
land	-492
▁U	-493
▁als	-494
aren	-495
alis	-496
▁moet	-497
til	-498
minist	-499
▁kunnen	-500
▁sp	-501
▁rec	-502
oord	-503
▁mes	-504
▁aant	-505
▁avec	-506
tr	-507
▁dan	-508
ui	-509
▁hebben	-510
ine	-511
ministr	-512
▁po	-513
▁av	-514
organ	-515
▁hoe	-516
▁pays	-517
tic	-518
▁fin	-519
omm	-520
00	-521
alement	-522
ari	-523
ouw	-524
▁aantal	-525
tis	-526
nement	-527
▁sou	-528
▁travail	-529
▁vo	-530
werk	-531
eder	-532
con	-533
ass	-534
ion	-535
5.	-536
its	-537
ices	-538
aut	-539
▁leur	-540
ige	-541
▁inform	-542
ect	-543
▁betre	-544
▁sit	-545
ode	-546
cte	-547
▁hun	-548
▁no	-549
zen	-550
▁wet	-551
▁tou	-552
▁nog	-553
▁cas	-554
aak	-555
▁personnes	-556
▁vous	-557
▁Pour	-558
pro	-559
eling	-560
▁rap	-561
▁uw	-562
gens	-563
▁il	-564
▁dem	-565
▁En	-566
▁man	-567
int	-568
heids	-569
ales	-570
men	-571
▁kan	-572
king	-573
▁cr	-574
▁gen	-575
▁Belgique	-576
ouv	-577
geven	-578
▁dien	-579
gd	-580
▁trans	-581
▁bep	-582
aient	-583
oek	-584
sch	-585
co	-586
voor	-587
ruik	-588
cl	-589
▁concern	-590
ec	-591
ren	-592
▁co	-593
ace	-594
amen	-595
▁minist	-596
▁J	-597
dic	-598
ord	-599
▁contr	-600
▁rel	-601
uur	-602
▁Zo	-603
ourn	-604
ussen	-605
voir	-606
pos	-607
▁politie	-608
aatreg	-609
▁commun	-610
▁Het	-611
ex	-612
▁sch	-613
▁dern	-614
▁acc	-615
ande	-616
▁Belg	-617
▁services	-618
▁situ	-619
▁votre	-620
▁land	-621
▁donn	-622
av	-623
oed	-624
▁wat	-625
veau	-626
▁5	-627
iff	-628
fra	-629
▁Europ	-630
organis	-631
alit	-632
20	-633
ies	-634
▁cad	-635
aken	-636
▁proc	-637
kken	-638
▁ges	-639
mp	-640
▁Quelles	-641
▁administr	-642
ouver	-643
▁daar	-644
chten	-645
ouvez	-646
▁maar	-647
aten	-648
▁fait	-649
▁chiff	-650
idd	-651
lo	-652
cr	-653
▁do	-654
elf	-655
gelijk	-656
stell	-657
▁zal	-658
▁nation	-659
are	-660
kel	-661
anci	-662
ution	-663
hou	-664
▁vi	-665
dig	-666
ration	-667
▁hier	-668
▁andere	-669
▁ques	-670
kom	-671
galement	-672
▁%	-673
▁cadre	-674
ste	-675
riez	-676
▁besch	-677
iti	-678
▁pre	-679
puis	-680
▁maatreg	-681
▁bas	-682
▁zich	-683
▁best	-684
▁dossi	-685
acc	-686
▁nieu	-687
?5.	-688
cur	-689
quer	-690
ader	-691
bij	-692
unt	-693
▁bed	-694
ois	-695
▁ve	-696
mis	-697
erde	-698
ragen	-699
▁combien	-700
ign	-701
▁derni	-702
▁verb	-703
all	-704
ank	-705
vers	-706
onder	-707
▁4	-708
able	-709
▁2018	-710
met	-711
▁mesures	-712
▁fon	-713
cis	-714
De	-715
▁mar	-716
ger	-717
posi	-718
ard	-719
▁1.	-720
irm	-721
conom	-722
ties	-723
gest	-724
ind	-725
ult	-726
▁at	-727
inder	-728
▁as	-729
roe	-730
vis	-731
▁act	-732
▁hoeveel	-733
▁ten	-734
of	-735
▁europ	-736
ues	-737
aff	-738
wij	-739
▁tij	-740
od	-741
get	-742
In	-743
▁public	-744
▁alle	-745
▁eur	-746
zien	-747
anc	-748
▁chiffres	-749
▁police	-750
▁tussen	-751
▁tegen	-752
▁mis	-753
▁ob	-754
▁plan	-755
▁diff	-756
▁cijf	-757
▁gebruik	-758
▁2013	-759
▁geen	-760
ude	-761
�,	-762
nem	-763
▁Ge	-764
▁Il	-765
▁rapport	-766
sent	-767
af	-768
▁besl	-769
ende	-770
ctions	-771
erv	-772
▁maatregelen	-773
zoek	-774
▁Belgische	-775
▁19	-776
gr	-777
▁indi	-778
▁sy	-779
elk	-780
ong	-781
vallen	-782
tique	-783
iden	-784
▁ni	-785
▁si	-786
▁produ	-787
▁ja	-788
▁to	-789
ug	-790
pon	-791
▁na	-792
ts	-793
leg	-794
ctie	-795
ense	-796
isse	-797
▁lors	-798
ille	-799
eds	-800
▁moeten	-801
▁Pouvez	-802
▁int	-803
▁ti	-804
▁aange	-805
▁col	-806
▁nieuwe	-807
ron	-808
aties	-809
oy	-810
▁200	-811
ication	-812
curit	-813
tiv	-814
kt	-815
illen	-816
ilig	-817
onc	-818
▁cl	-819
▁Kan	-820
▁quel	-821
▁Op	-822
erg	-823
▁personen	-824
),	-825
▁intern	-826
uss	-827
▁feder	-828
▁6	-829
▁mati	-830
ese	-831
▁organis	-832
▁fourn	-833
▁ste	-834
▁Pourriez	-835
woord	-836
anne	-837
▁bev	-838
baar	-839
elon	-840
201	-841
▁cijfers	-842
�.	-843
oren	-844
▁versch	-845
iste	-846
igen	-847
▁mogelijk	-848
cent	-849
ed	-850
uiten	-851
aats	-852
chter	-853
▁vis	-854
erm	-855
▁tre	-856
▁contre	-857
▁peut	-858
▁gouver	-859
▁verk	-860
stru	-861
tilis	-862
▁cert	-863
▁son	-864
▁cours	-865
▁mont	-866
ellen	-867
▁question	-868
ions	-869
▁dro	-870
ral	-871
iques	-872
tra	-873
prises	-874
innen	-875
▁li	-876
▁was	-877
inds	-878
ullen	-879
▁depuis	-880
elingen	-881
insi	-882
core	-883
eleid	-884
▁ven	-885
▁possi	-886
mbre	-887
▁actuel	-888
▁bepaal	-889
MV	-890
▁sup	-891
▁dire	-892
wee	-893
rale	-894
rib	-895
vangen	-896
▁Quelle	-897
▁gro	-898
tive	-899
▁loi	-900
ats	-901
over	-902
elde	-903
wer	-904
enten	-905
ple	-906
▁je	-907
▁federale	-908
endre	-909
▁bud	-910
▁fra	-911
ann	-912
anden	-913
▁non	-914
one	-915
bel	-916
kking	-917
zet	-918
gion	-919
▁initi	-920
▁comme	-921
▁encore	-922
tig	-923
hand	-924
ient	-925
▁fonction	-926
000	-927
erste	-928
enne	-929
▁vast	-930
▁sa	-931
zig	-932
imin	-933
▁ins	-934
art	-935
▁afin	-936
▁gouvernement	-937
▁ho	-938
▁conf	-939
▁gegeven	-940
-201	-941
als	-942
ide	-943
▁niveau	-944
▁ko	-945
▁mais	-946
▁recht	-947
▁ro	-948
midd	-949
ek	-950
QO	-951
trang	-952
▁form	-953
▁vraag	-954
isc	-955
▁hand	-956
anneer	-957
▁ju	-958
▁ren	-959
▁Europese	-960
▁kader	-961
▁ons	-962
▁terug	-963
▁ged	-964
▁7	-965
lu	-966
uli	-967
▁ret	-968
▁gere	-969
▁probl	-970
mber	-971
bs	-972
elop	-973
valu	-974
▁cent	-975
tement	-976
dat	-977
▁jan	-978
▁ass	-979
▁financi	-980
▁samen	-981
▁sociale	-982
geb	-983
waar	-984
▁peu	-985
inci	-986
▁suiv	-987
NC	-988
▁bl	-989
ving	-990
▁prof	-991
fin	-992
dure	-993
▁projet	-994
▁part	-995
oten	-996
▁2015,	-997
▁es	-998
affirm	-999
▁contro	-1000
heden	-1001
▁respe	-1002
ets	-1003
▁car	-1004
affirmative	-1005
alen	-1006
▁Par	-1007
▁Graag	-1008
antwoord	-1009
atique	-1010
eu	-1011
▁Ch	-1012
za	-1013
mi	-1014
chap	-1015
▁zelf	-1016
▁gar	-1017
▁vijf	-1018
rijven	-1019
▁jus	-1020
▁ty	-1021
ones	-1022
rokken	-1023
▁concernant	-1024
uren	-1025
▁y	-1026
rer	-1027
▁fournir	-1028
▁Is	-1029
gesteld	-1030
ateurs	-1031
6.	-1032
▁Br	-1033
atives	-1034
▁avez	-1035
▁for	-1036
if	-1037
▁proble	-1038
▁uitge	-1039
amment	-1040
BS	-1041
▁gevol	-1042
da	-1043
▁betrekking	-1044
ker	-1045
atif	-1046
ile	-1047
cif	-1048
kend	-1049
▁moy	-1050
aque	-1051
ances	-1052
▁ainsi	-1053
orit	-1054
zicht	-1055
▁not	-1056
rijk	-1057
▁Quels	-1058
tab	-1059
▁deux	-1060
mpl	-1061
▁belge	-1062
atis	-1063
▁cin	-1064
▁Un	-1065
▁ris	-1066
▁genomen	-1067
▁persone	-1068
oire	-1069
onden	-1070
▁zouden	-1071
ultat	-1072
iek	-1073
▁Fr	-1074
nt	-1075
▁He	-1076
gra	-1077
per	-1078
▁quelle	-1079
cont	-1080
lag	-1081
▁fisc	-1082
▁cet	-1083
ire	-1084
▁notre	-1085
aliteit	-1086
▁milit	-1087
stelling	-1088
ensi	-1089
▁faire	-1090
elt	-1091
;-	-1092
cid	-1093
ouwen	-1094
▁situation	-1095
▁SNC	-1096
▁dev	-1097
pte	-1098
ussi	-1099
▁NM	-1100
▁fr	-1101
▁Comment	-1102
stand	-1103
ante	-1104
▁euro	-1105
iding	-1106
▁SNCB	-1107
▁ik	-1108
▁personnel	-1109
▁cinq	-1110
▁via	-1111
▁NMBS	-1112
▁inge	-1113
autres	-1114
ame	-1115
▁beschik	-1116
▁8	-1117
▁permet	-1118
vin	-1119
chn	-1120
pend	-1121
iter	-1122
▁2014,	-1123
▁geven	-1124
▁demande	-1125
▁spe	-1126
▁jaren	-1127
leurs	-1128
ages	-1129
▁nouv	-1130
▁imp	-1131
bilit	-1132
position	-1133
aines	-1134
tiques	-1135
▁maken	-1136
for	-1137
drag	-1138
west	-1139
▁syst	-1140
OD	-1141
▁service	-1142
mps	-1143
▁bo	-1144
ress	-1145
▁verm	-1146
▁9	-1147
cteur	-1148
▁dossiers	-1149
▁Con	-1150
▁amb	-1151
▁mom	-1152
oris	-1153
ains	-1154
▁stand	-1155
▁sein	-1156
oon	-1157
issie	-1158
▁leurs	-1159
▁budget	-1160
pag	-1161
▁ber	-1162
▁nou	-1163
ink	-1164
oop	-1165
een	-1166
▁terr	-1167
▁verschillen	-1168
ders	-1169
▁Bruss	-1170
oci	-1171
ef	-1172
▁sinds	-1173
▁diensten	-1174
rement	-1175
▁2.	-1176
".	-1177
tant	-1178
▁10	-1179
diensten	-1180
▁parti	-1181
▁base	-1182
▁stat	-1183
ject	-1184
▁twee	-1185
▁dur	-1186
▁2012	-1187
▁quelles	-1188
▁wel	-1189
▁priv	-1190
▁geme	-1191
dige	-1192
▁trein	-1193
▁entreprises	-1194
▁mil	-1195
rait	-1196
deren	-1197
▁arr	-1198
ber	-1199
▁nu	-1200
yste	-1201
tabl	-1202
orte	-1203
▁tro	-1204
tait	-1205
▁SP	-1206
▁apr	-1207
▁regering	-1208
use	-1209
▁informatie	-1210
off	-1211
▁beg	-1212
▁type	-1213
▁min	-1214
▁sign	-1215
ites	-1216
rux	-1217
▁St	-1218
▁effect	-1219
att	-1220
titu	-1221
▁princi	-1222
▁zullen	-1223
eur	-1224
isch	-1225
▁char	-1226
▁mensen	-1227
acht	-1228
dens	-1229
pons	-1230
▁demand	-1231
tifs	-1232
aakt	-1233
▁buiten	-1234
▁rais	-1235
▁pris	-1236
▁eerste	-1237
tikel	-1238
▁lang	-1239
ument	-1240
ponse	-1241
▁repr	-1242
cess	-1243
ticle	-1244
▁notamment	-1245
eg	-1246
bles	-1247
pt	-1248
▁gez	-1249
▁dienst	-1250
▁waren	-1251
pre	-1252
▁lig	-1253
urg	-1254
▁kw	-1255
▁mal	-1256
)?	-1257
▁belast	-1258
▁binnen	-1259
gele	-1260
▁Kunt	-1261
▁app	-1262
oep	-1263
aine	-1264
▁ag	-1265
mble	-1266
ding	-1267
wel	-1268
▁ent	-1269
▁inst	-1270
▁internation	-1271
jour	-1272
▁pati	-1273
gende	-1274
inter	-1275
voerd	-1276
rent	-1277
ix	-1278
▁ph	-1279
▁techn	-1280
▁open	-1281
▁vragen	-1282
▁FOD	-1283
▁verschillende	-1284
▁souh	-1285
▁zoals	-1286
▁pass	-1287
▁dont	-1288
▁peuvent	-1289
gt	-1290
racht	-1291
▁effet	-1292
?6.	-1293
▁bien	-1294
▁gest	-1295
▁vrij	-1296
▁15	-1297
▁sol	-1298
▁compte	-1299
ieurs	-1300
pli	-1301
▁gegevens	-1302
▁minister	-1303
▁place	-1304
issement	-1305
▁deel	-1306
▁SPF	-1307
▁fe	-1308
▁imm	-1309
▁wij	-1310
▁Al	-1311
komen	-1312
▁partic	-1313
▁val	-1314
▁ses	-1315
▁montant	-1316
nes	-1317
olog	-1318
▁overheids	-1319
▁staat	-1320
ule	-1321
▁Des	-1322
beid	-1323
bil	-1324
▁cel	-1325
▁off	-1326
Un	-1327
▁ventil	-1328
mer	-1329
▁effec	-1330
▁sera	-1331
aven	-1332
▁const	-1333
▁pres	-1334
mbres	-1335
ging	-1336
▁cam	-1337
lijke	-1338
▁2016,	-1339
app	-1340
pass	-1341
antes	-1342
▁ans	-1343
▁provin	-1344
▁reeds	-1345
cul	-1346
emen	-1347
ence	-1348
vention	-1349
▁activ	-1350
▁Gewest	-1351
pose	-1352
▁sans	-1353
▁nous	-1354
▁annuel	-1355
ili	-1356
▁point	-1357
ler	-1358
▁cor	-1359
▁membres	-1360
zake	-1361
▁veilig	-1362
▁2010	-1363
regist	-1364
sp	-1365
▁kon	-1366
mm	-1367
▁antwoord	-1368
▁ab	-1369
gang	-1370
isl	-1371
uid	-1372
werking	-1373
▁mois	-1374
lect	-1375
▁dom	-1376
tenir	-1377
▁mise	-1378
▁posi	-1379
▁chaque	-1380
oivent	-1381
▁belang	-1382
qui	-1383
▁conn	-1384
▁utilis	-1385
▁laat	-1386
ater	-1387
▁inzake	-1388
landse	-1389
▁profes	-1390
ange	-1391
▁dossier	-1392
lacht	-1393
mment	-1394
▁sous	-1395
ables	-1396
▁gew	-1397
▁dus	-1398
▁aanv	-1399
no	-1400
lab	-1401
nemers	-1402
▁am	-1403
▁che	-1404
▁possible	-1405
tijd	-1406
velop	-1407
▁soit	-1408
clar	-1409
▁gem	-1410
▁loc	-1411
▁onderzoek	-1412
▁betrokken	-1413
▁aussi	-1414
▁krij	-1415
▁volgens	-1416
▁wanneer	-1417
�?	-1418
▁politique	-1419
▁mesure	-1420
stellingen	-1421
▁quels	-1422
▁total	-1423
arr	-1424
gisl	-1425
ventuel	-1426
iode	-1427
▁gaat	-1428
▁selon	-1429
▁inv	-1430
lus	-1431
▁fer	-1432
tief	-1433
▁doit	-1434
rak	-1435
▁mill	-1436
▁prises	-1437
▁her	-1438
bare	-1439
▁suite	-1440
▁nr	-1441
dragen	-1442
istes	-1443
beeld	-1444
komst	-1445
riode	-1446
up	-1447
▁bevoe	-1448
▁effectu	-1449
ust	-1450
mo	-1451
ees	-1452
▁moins	-1453
▁Brussel	-1454
▁nemen	-1455
▁Vol	-1456
sions	-1457
▁plaats	-1458
▁att	-1459
▁aff	-1460
bet	-1461
▁gebe	-1462
erden	-1463
tim	-1464
▁Fin	-1465
▁tijd	-1466
▁plusieurs	-1467
▁komen	-1468
▁werken	-1469
▁import	-1470
▁gevallen	-1471
geving	-1472
▁mon	-1473
▁12	-1474
labor	-1475
▁concr	-1476
hui	-1477
iers	-1478
ric	-1479
abin	-1480
▁18	-1481
wik	-1482
article	-1483
En	-1484
▁fact	-1485
▁Si	-1486
▁fam	-1487
ia	-1488
▁onze	-1489
ouvoir	-1490
▁zij	-1491
▁had	-1492
plit	-1493
▁temps	-1494
▁publics	-1495
imp	-1496
fic	-1497
ruxelles	-1498
▁administratie	-1499
orgen	-1500
▁wil	-1501
▁sujet	-1502
▁3.	-1503
frabel	-1504
iez	-1505
ach	-1506
xim	-1507
Het	-1508
▁Ce	-1509
nel	-1510
▁pos	-1511
▁Cette	-1512
teurs	-1513
ctor	-1514
▁Qu	-1515
▁zaken	-1516
jec	-1517
agen	-1518
tection	-1519
amer	-1520
▁gev	-1521
vang	-1522
gor	-1523
aiss	-1524
▁exem	-1525
igr	-1526
▁communi	-1527
▁On	-1528
▁verg	-1529
▁travailleurs	-1530
leiding	-1531
▁goed	-1532
▁landen	-1533
▁sc	-1534
▁seront	-1535
▁contact	-1536
▁anal	-1537
▁trois	-1538
isation	-1539
glement	-1540
▁echter	-1541
ph	-1542
ribu	-1543
▁overzicht	-1544
rier	-1545
▁contra	-1546
▁avant	-1547
leden	-1548
▁belges	-1549
yant	-1550
▁prendre	-1551
▁condi	-1552
▁autres	-1553
usti	-1554
▁nove	-1555
▁kl	-1556
▁tout	-1557
▁doivent	-1558
▁overheid	-1559
▁25	-1560
aald	-1561
▁ministre	-1562
▁Comm	-1563
▁secteur	-1564
▁gaan	-1565
▁hou	-1566
quoi	-1567
▁artikel	-1568
▁souhait	-1569
▁vos	-1570
▁Bruxelles	-1571
cteurs	-1572
▁donc	-1573
erne	-1574
ateur	-1575
aart	-1576
ester	-1577
hic	-1578
▁beroep	-1579
Le	-1580
▁milj	-1581
▁minder	-1582
▁port	-1583
▁lut	-1584
li	-1585
ysteem	-1586
▁volgende	-1587
▁blijk	-1588
▁13	-1589
ning	-1590
conomie	-1591
7.	-1592
kk	-1593
▁aug	-1594
▁indiquer	-1595
▁11	-1596
inst	-1597
▁bepaalde	-1598
sement	-1599
▁actuellement	-1600
▁rou	-1601
inform	-1602
▁lieu	-1603
vre	-1604
ade	-1605
▁vue	-1606
plan	-1607
ules	-1608
▁sem	-1609
▁Je	-1610
▁cy	-1611
▁tijdens	-1612
open	-1613
▁2011	-1614
oorden	-1615
ks	-1616
ijs	-1617
▁pouvoir	-1618
▁compl	-1619
icap	-1620
▁bez	-1621
▁Zijn	-1622
rijf	-1623
cie	-1624
▁march	-1625
wet	-1626
yse	-1627
lam	-1628
▁mani	-1629
▁manier	-1630
▁roy	-1631
houden	-1632
▁droit	-1633
opt	-1634
zelf	-1635
▁infra	-1636
taient	-1637
▁enz	-1638
ffende	-1639
sultat	-1640
min	-1641
aling	-1642
uses	-1643
▁envis	-1644
com	-1645
parti	-1646
▁autom	-1647
beids	-1648
▁Justi	-1649
▁informations	-1650
▁steeds	-1651
▁consomm	-1652
▁even	-1653
▁vl	-1654
▁kosten	-1655
siel	-1656
tern	-1657
gesch	-1658
▁ind	-1659
▁personeels	-1660
mission	-1661
▁30	-1662
▁etc	-1663
▁nouveau	-1664
ko	-1665
anse	-1666
erci	-1667
cten	-1668
▁toute	-1669
▁bevoegd	-1670
▁haar	-1671
▁septe	-1672
▁doen	-1673
▁doel	-1674
▁condu	-1675
ieke	-1676
out	-1677
▁vaak	-1678
▁geval	-1679
▁basis	-1680
ied	-1681
▁cour	-1682
fois	-1683
▁Er	-1684
aard	-1685
seil	-1686
▁14	-1687
mar	-1688
volu	-1689
asile	-1690
vier	-1691
uigen	-1692
▁gevangen	-1693
▁jur	-1694
cep	-1695
tude	-1696
▁grond	-1697
enteel	-1698
▁serait	-1699
▁verband	-1700
▁jaarlijk	-1701
▁Wor	-1702
stre	-1703
▁Une	-1704
tionn	-1705
stal	-1706
▁ress	-1707
voorbeeld	-1708
ident	-1709
iteiten	-1710
▁drie	-1711
▁empl	-1712
ulp	-1713
uni	-1714
genomen	-1715
roep	-1716
verb	-1717
▁jour	-1718
▁fa	-1719
comm	-1720
▁inf	-1721
▁exemple	-1722
▁reven	-1723
ergelijke	-1724
uari	-1725
▁��	-1726
▁statut	-1727
▁bere	-1728
▁krijgen	-1729
rodu	-1730
gaan	-1731
iment	-1732
▁toege	-1733
▁januari	-1734
▁verpl	-1735
▁certains	-1736
oit	-1737
▁Heeft	-1738
▁periode	-1739
air	-1740
orig	-1741
rence	-1742
agit	-1743
akk	-1744
struct	-1745
enn	-1746
▁verh	-1747
jours	-1748
▁propos	-1749
ieden	-1750
cher	-1751
oup	-1752
▁verbl	-1753
▁janvier	-1754
▁stud	-1755
sionn	-1756
esch	-1757
arm	-1758
ax	-1759
▁blij	-1760
▁belasting	-1761
▁Infrabel	-1762
▁cir	-1763
▁jong	-1764
▁midd	-1765
▁belangrijk	-1766
oupe	-1767
▁gel	-1768
tivement	-1769
▁Avez	-1770
▁werknemers	-1771
deel	-1772
anten	-1773
volution	-1774
▁onge	-1775
▁concerne	-1776
▁dergelijke	-1777
▁spoor	-1778
▁asiel	-1779
▁Neder	-1780
loten	-1781
▁bedrag	-1782
ieken	-1783
dienst	-1784
▁aur	-1785
▁transport	-1786
▁betreffende	-1787
▁tous	-1788
▁ele	-1789
▁16	-1790
▁verl	-1791
doen	-1792
▁ligne	-1793
blig	-1794
▁specif	-1795
▁rij	-1796
▁totaal	-1797
alisation	-1798
cc	-1799
▁oeu	-1800
enschap	-1801
▁commis	-1802
La	-1803
plication	-1804
gative	-1805
cedure	-1806
▁voy	-1807
era	-1808
▁mee	-1809
▁br	-1810
▁fraude	-1811
▁situatie	-1812
.000	-1813
tention	-1814
▁oct	-1815
utilis	-1816
▁th	-1817
▁17	-1818
aur	-1819
▁dist	-1820
ature	-1821
▁cit	-1822
▁plain	-1823
ete	-1824
▁Ces	-1825
▁avait	-1826
▁Voor	-1827
▁aupr	-1828
▁bedrijven	-1829
ikt	-1830
▁hij	-1831
▁num	-1832
▁handicap	-1833
▁voorzien	-1834
▁Sy	-1835
▁gerecht	-1836
▁all	-1837
ancement	-1838
▁arbeids	-1839
▁ontwik	-1840
▁cap	-1841
trangers	-1842
▁dou	-1843
▁betreft	-1844
▁beleid	-1845
▁princip	-1846
▁garan	-1847
▁aans	-1848
abinet	-1849
mati	-1850
▁zones	-1851
▁initiatie	-1852
▁21	-1853
rents	-1854
▁besluit	-1855
▁premi	-1856
empl	-1857
▁mijn	-1858
▁ops	-1859
▁fois	-1860
AS	-1861
▁lok	-1862
▁opge	-1863
gard	-1864
forme	-1865
udici	-1866
▁uitvo	-1867
▁nouvelle	-1868
por	-1869
▁zonder	-1870
▁veel	-1871
▁Over	-1872
▁euros	-1873
▁rest	-1874
administr	-1875
dec	-1876
▁vr	-1877
aris	-1878
je	-1879
kening	-1880
▁communiquer	-1881
▁laatste	-1882
idelijk	-1883
▁oper	-1884
man	-1885
▁konink	-1886
▁respect	-1887
erc	-1888
▁Ant	-1889
andid	-1890
▁22	-1891
▁toujours	-1892
▁nos	-1893
▁Dat	-1894
▁ayant	-1895
▁momenteel	-1896
dit	-1897
▁constat	-1898
lijn	-1899
▁conclus	-1900
▁consid	-1901
gorie	-1902
pliqu	-1903
▁fiscale	-1904
itement	-1905
▁eigen	-1906
ront	-1907
veloppe	-1908
▁vorm	-1909
dem	-1910
vestis	-1911
ucht	-1912
▁stellen	-1913
▁conditions	-1914
▁post	-1915
▁EU	-1916
sultats	-1917
▁professionn	-1918
▁2017,	-1919
▁protection	-1920
oeken	-1921
ico	-1922
ieuw	-1923
mijn	-1924
tien	-1925
ktr	-1926
▁miljoen	-1927
zelfde	-1928
▁prem	-1929
plitst	-1930
zonder	-1931
Il	-1932
dures	-1933
▁controles	-1934
bo	-1935
iens	-1936
▁jurid	-1937
▁omdat	-1938
inderen	-1939
▁dece	-1940
ichten	-1941
▁ref	-1942
▁uitgevoerd	-1943
▁gevangenis	-1944
ief	-1945
ambre	-1946
raf	-1947
▁doc	-1948
▁internationale	-1949
ner	-1950
fense	-1951
▁sal	-1952
.2.	-1953
▁december	-1954
zij	-1955
▁taal	-1956
gesplitst	-1957
▁Pro	-1958
▁Volgens	-1959
▁Tur	-1960
ket	-1961
▁pensi	-1962
cembre	-1963
▁impact	-1964
▁progra	-1965
▁expl	-1966
▁reden	-1967
ches	-1968
▁san	-1969
appen	-1970
tische	-1971
▁judici	-1972
▁divers	-1973
▁oeuvre	-1974
▁raison	-1975
ines	-1976
iten	-1977
▁mag	-1978
▁behand	-1979
▁2013,	-1980
▁cal	-1981
▁Au	-1982
▁gebeur	-1983
▁dispos	-1984
▁indien	-1985
▁lesqu	-1986
▁questions	-1987
▁site	-1988
▁project	-1989
dre	-1990
▁eer	-1991
▁mat	-1992
ences	-1993
▁train	-1994
▁Conseil	-1995
▁eu	-1996
▁geld	-1997
▁produits	-1998
▁bi	-1999
▁Een	-2000
aissance	-2001
pit	-2002
▁hoog	-2003
▁blijkt	-2004
▁waarom	-2005
▁royal	-2006
▁elk	-2007
��	-2008
voc	-2009
illet	-2010
cision	-2011
▁huid	-2012
▁Waar	-2013
acit	-2014
los	-2015
▁collabor	-2016
bi	-2017
deling	-2018
▁enregist	-2019
punt	-2020
Les	-2021
▁ca	-2022
ieux	-2023
kele	-2024
▁droits	-2025
▁migr	-2026
▁suppl	-2027
▁meed	-2028
centage	-2029
onne	-2030
aanden	-2031
▁str	-2032
▁grote	-2033
valuation	-2034
▁Commission	-2035
▁particuli	-2036
▁ban	-2037
passing	-2038
▁autorit	-2039
time	-2040
▁charge	-2041
▁bijvoorbeeld	-2042
▁meedelen	-2043
lucht	-2044
iement	-2045
▁kre	-2046
▁cat	-2047
▁modi	-2048
▁hum	-2049
des	-2050
▁besliss	-2051
richt	-2052
sence	-2053
IV	-2054
▁Kamer	-2055
ulation	-2056
▁disposi	-2057
vu	-2058
▁sant	-2059
▁avoir	-2060
▁demandes	-2061
cip	-2062
▁hulp	-2063
▁bepaald	-2064
tige	-2065
erming	-2066
▁nationalit	-2067
▁get	-2068
objet	-2069
▁alors	-2070
Union	-2071
▁gesteld	-2072
th	-2073
▁pen	-2074
iseerd	-2075
▁groot	-2076
ffen	-2077
▁199	-2078
sy	-2079
▁sle	-2080
atiques	-2081
▁onl	-2082
▁elektr	-2083
▁consult	-2084
su	-2085
▁exp	-2086
▁accord	-2087
hicules	-2088
gelegd	-2089
door	-2090
keer	-2091
onds	-2092
▁test	-2093
▁vic	-2094
▁relative	-2095
▁termijn	-2096
▁millions	-2097
ulier	-2098
▁possibilit	-2099
rieur	-2100
▁gevolg	-2101
▁enkel	-2102
▁28	-2103
deeld	-2104
▁controle	-2105
▁pri	-2106
wijs	-2107
▁geh	-2108
▁27	-2109
▁gele	-2110
▁augment	-2111
taire	-2112
ruct	-2113
▁Dit	-2114
▁Est	-2115
fi	-2116
unes	-2117
▁zieken	-2118
▁Zal	-2119
▁internet	-2120
▁nationaliteit	-2121
▁Ik	-2122
vir	-2123
tats	-2124
avant	-2125
▁sl	-2126
ueel	-2127
lior	-2128
▁comment	-2129
rug	-2130
▁slacht	-2131
lachten	-2132
▁viol	-2133
▁citoy	-2134
▁verkl	-2135
crimin	-2136
▁iden	-2137
▁soins	-2138
▁obtenir	-2139
▁gemaakt	-2140
.�	-2141
▁Chambre	-2142
▁maanden	-2143
▁24	-2144
kering	-2145
▁Indien	-2146
ergie	-2147
pres	-2148
▁regel	-2149
▁2019	-2150
▁volle	-2151
▁huidige	-2152
▁jaarlijks	-2153
demn	-2154
nemen	-2155
order	-2156
▁maxim	-2157
pens	-2158
▁lim	-2159
fici	-2160
▁laten	-2161
▁waarbij	-2162
eten	-2163
ponses	-2164
▁vre	-2165
▁2012,	-2166
tir	-2167
▁long	-2168
▁ger	-2169
▁toen	-2170
abilit	-2171
cemment	-2172
▁norm	-2173
aatsen	-2174
▁voert	-2175
izig	-2176
▁premier	-2177
▁publique	-2178
▁grand	-2179
▁fem	-2180
▁voyage	-2181
prise	-2182
▁partie	-2183
este	-2184
▁personeel	-2185
eff	-2186
lagen	-2187
▁juni	-2188
lex	-2189
aad	-2190
euros	-2191
oort	-2192
reven	-2193
veilig	-2194
▁net	-2195
oog	-2196
▁station	-2197
?7.	-2198
▁koninklijk	-2199
▁Ar	-2200
▁certaines	-2201
lev	-2202
▁hebt	-2203
action	-2204
▁assur	-2205
▁moyens	-2206
▁Re	-2207
ensie	-2208
veloppement	-2209
▁mobil	-2210
▁moment	-2211
tin	-2212
▁beh	-2213
▁juli	-2214
▁toel	-2215
▁probleem	-2216
▁bedrijf	-2217
▁kost	-2218
▁taux	-2219
▁relatif	-2220
▁enf	-2221
▁objec	-2222
▁civ	-2223
veaux	-2224
▁26	-2225
istre	-2226
▁ervan	-2227
▁pourquoi	-2228
ander	-2229
▁juin	-2230
▁tant	-2231
▁mettre	-2232
ting	-2233
rum	-2234
▁zone	-2235
▁jusqu	-2236
sych	-2237
▁som	-2238
▁tel	-2239
▁bur	-2240
▁verze	-2241
▁?	-2242
zaken	-2243
post	-2244
etten	-2245
▁studie	-2246
ultaten	-2247
▁gemidd	-2248
▁voorbij	-2249
na	-2250
illes	-2251
▁coop	-2252
▁ill	-2253
▁ventiler	-2254
▁Nederland	-2255
pond	-2256
eer	-2257
▁eng	-2258
oph	-2259
recht	-2260
.)	-2261
▁moe	-2262
▁weg	-2263
raktij	-2264
ellement	-2265
▁juillet	-2266
tranger	-2267
▁prot	-2268
umenten	-2269
▁enkele	-2270
woorden	-2271
udi	-2272
▁gare	-2273
▁activit	-2274
vi	-2275
serv	-2276
raux	-2277
▁circul	-2278
▁ambten	-2279
▁ontvangen	-2280
werken	-2281
▁verblijf	-2282
▁lutte	-2283
laam	-2284
▁Selon	-2285
▁oblig	-2286
gence	-2287
▁verw	-2288
waarden	-2289
itie	-2290
▁dag	-2291
▁tax	-2292
▁alge	-2293
▁nood	-2294
bed	-2295
tent	-2296
mentaires	-2297
won	-2298
▁gl	-2299
stellen	-2300
▁Welk	-2301
agement	-2302
komsten	-2303
▁cela	-2304
pendant	-2305
▁gevolgen	-2306
▁plaintes	-2307
▁frais	-2308
chts	-2309
▁4.	-2310
omt	-2311
▁souvent	-2312
icatie	-2313
▁territ	-2314
▁klachten	-2315
Dans	-2316
aide	-2317
▁statis	-2318
▁introdu	-2319
angs	-2320
▁pay	-2321
viron	-2322
▁fun	-2323
▁mod	-2324
▁der	-2325
partement	-2326
▁autre	-2327
utilisation	-2328
assur	-2329
isten	-2330
ensemble	-2331
▁Ver	-2332
▁welk	-2333
quent	-2334
▁adv	-2335
▁agents	-2336
▁mars	-2337
fensie	-2338
▁bestaan	-2339
▁maart	-2340
▁middelen	-2341
▁houden	-2342
rift	-2343
jourd	-2344
tegen	-2345
inden	-2346
▁respons	-2347
▁gra	-2348
aars	-2349
wezen	-2350
raient	-2351
voer	-2352
▁cyber	-2353
ogi	-2354
uut	-2355
▁vastgesteld	-2356
uer	-2357
▁anti	-2358
▁communes	-2359
▁souhaiter	-2360
▁ceux	-2361
▁aliment	-2362
▁sus	-2363
verlen	-2364
▁analyse	-2365
gie	-2366
ubl	-2367
▁sub	-2368
gel	-2369
5,	-2370
▁voorbije	-2371
▁wett	-2372
▁justi	-2373
▁resultaten	-2374
times	-2375
▁projets	-2376
ologie	-2377
agez	-2378
▁reconn	-2379
▁gebruikt	-2380
▁trains	-2381
administration	-2382
▁23	-2383
▁zorg	-2384
▁evalu	-2385
matique	-2386
▁groupe	-2387
allon	-2388
▁Nation	-2389
▁femmes	-2390
middelen	-2391
▁aand	-2392
▁fonctionn	-2393
elopen	-2394
▁Depuis	-2395
▁fix	-2396
▁initiatives	-2397
▁Vous	-2398
▁graag	-2399
▁struct	-2400
cri	-2401
▁heel	-2402
▁Wanneer	-2403
▁prest	-2404
oient	-2405
iken	-2406
▁med	-2407
▁maak	-2408
▁personne	-2409
▁pourrait	-2410
▁lid	-2411
▁ziek	-2412
ofd	-2413
ser	-2414
rentes	-2415
▁jours	-2416
ications	-2417
▁Bij	-2418
▁Deze	-2419
▁vrouwen	-2420
gelopen	-2421
nieuw	-2422
▁nombreux	-2423
▁remb	-2424
mee	-2425
▁vig	-2426
▁formation	-2427
digen	-2428
▁crimin	-2429
▁enqu	-2430
nom	-2431
gebied	-2432
gime	-2433
kun	-2434
▁sensi	-2435
lai	-2436
ijst	-2437
▁bil	-2438
ondissement	-2439
oem	-2440
▁dipl	-2441
▁quelques	-2442
erland	-2443
▁lucht	-2444
VA	-2445
weg	-2446
▁psych	-2447
▁provincie	-2448
▁fran	-2449
best	-2450
▁duur	-2451
rengen	-2452
▁Vlaam	-2453
zoeken	-2454
▁Be	-2455
ocht	-2456
▁waarin	-2457
ueur	-2458
ps	-2459
▁immers	-2460
▁Parlement	-2461
pagne	-2462
Pour	-2463
voit	-2464
izigers	-2465
▁slachtoff	-2466
verg	-2467
▁semble	-2468
▁samenwerking	-2469
▁voldoen	-2470
▁nationale	-2471
▁gestion	-2472
▁goe	-2473
▁veiligheid	-2474
▁Commissie	-2475
▁ben	-2476
itale	-2477
▁somm	-2478
▁province	-2479
gere	-2480
infra	-2481
▁lokale	-2482
delingen	-2483
▁procedure	-2484
oeding	-2485
inguis	-2486
:-	-2487
apt	-2488
lectron	-2489
",	-2490
▁traitement	-2491
▁concert	-2492
rijd	-2493
rique	-2494
isme	-2495
ffis	-2496
keur	-2497
timents	-2498
▁opgesplitst	-2499
▁annonc	-2500
zoekers	-2501
▁den	-2502
▁date	-2503
emb	-2504
contro	-2505
▁renfor	-2506
▁richt	-2507
illeurs	-2508
▁aper	-2509
▁procent	-2510
werp	-2511
▁savoir	-2512
▁problemen	-2513
occ	-2514
▁auc	-2515
aatsch	-2516
▁souhaiterais	-2517
urgers	-2518
▁stations	-2519
▁verplicht	-2520
▁31	-2521
▁verbet	-2522
▁veiligheids	-2523
▁prom	-2524
gislation	-2525
▁or	-2526
▁evolu	-2527
AV	-2528
▁hom	-2529
▁vie	-2530
▁Defensie	-2531
▁ondernem	-2532
▁disposition	-2533
gez	-2534
▁elle	-2535
▁transf	-2536
ervorm	-2537
▁hen	-2538
vement	-2539
▁nouvelles	-2540
▁hel	-2541
▁victimes	-2542
▁mai	-2543
ition	-2544
▁vert	-2545
▁totale	-2546
▁incid	-2547
▁verst	-2548
▁beperk	-2549
▁corre	-2550
▁malad	-2551
sements	-2552
teur	-2553
▁persoon	-2554
▁sector	-2555
▁vlak	-2556
▁enregistr	-2557
▁militaire	-2558
do	-2559
voy	-2560
ay	-2561
accord	-2562
▁opdra	-2563
lic	-2564
▁jeunes	-2565
▁mei	-2566
▁sim	-2567
tives	-2568
▁bedragen	-2569
▁paiement	-2570
▁disc	-2571
▁overleg	-2572
▁national	-2573
laan	-2574
▁gezond	-2575
▁kinderen	-2576
▁daarvan	-2577
▁indiqu	-2578
6,	-2579
ON	-2580
▁50	-2581
▁boven	-2582
rien	-2583
▁ple	-2584
ober	-2585
pers	-2586
atuur	-2587
▁leef	-2588
▁Besch	-2589
udes	-2590
plits	-2591
rales	-2592
ril	-2593
stel	-2594
▁erken	-2595
▁linguis	-2596
gde	-2597
▁risico	-2598
bouw	-2599
▁recomm	-2600
▁zit	-2601
vesti	-2602
-�	-2603
▁rempl	-2604
▁praktij	-2605
▁principe	-2606
houd	-2607
ciser	-2608
cit	-2609
abit	-2610
keers	-2611
▁tele	-2612
ktober	-2613
CA	-2614
obre	-2615
▁Die	-2616
▁oktober	-2617
▁gereg	-2618
emt	-2619
▁gepl	-2620
fu	-2621
aatschapp	-2622
erait	-2623
ichte	-2624
past	-2625
▁particip	-2626
▁employ	-2627
▁chac	-2628
▁illeg	-2629
▁raisons	-2630
▁position	-2631
▁systeem	-2632
▁chez	-2633
▁komt	-2634
▁parten	-2635
but	-2636
▁El	-2637
▁Daar	-2638
▁fac	-2639
▁territoire	-2640
▁celui	-2641
▁staan	-2642
▁toepassing	-2643
zorg	-2644
▁lui	-2645
iets	-2646
▁stelt	-2647
▁ontwikk	-2648
▁travaux	-2649
▁bew	-2650
▁rond	-2651
▁vigueur	-2652
▁Heb	-2653
▁pop	-2654
ides	-2655
ueil	-2656
ompag	-2657
rou	-2658
onen	-2659
elden	-2660
▁pensioen	-2661
▁titre	-2662
▁presse	-2663
▁leven	-2664
uk	-2665
▁militaires	-2666
ager	-2667
▁behe	-2668
▁buitenland	-2669
origine	-2670
igde	-2671
▁ambtenaren	-2672
conomische	-2673
▁specifieke	-2674
tieve	-2675
7,	-2676
ase	-2677
nten	-2678
▁gedet	-2679
quelle	-2680
▁contin	-2681
▁beslissing	-2682
igd	-2683
▁sex	-2684
fugi	-2685
stig	-2686
▁snel	-2687
amb	-2688
▁quant	-2689
▁personeelsleden	-2690
▁minim	-2691
▁atte	-2692
▁pend	-2693
▁relatives	-2694
▁Van	-2695
▁appar	-2696
partition	-2697
▁laquelle	-2698
merk	-2699
onge	-2700
ieren	-2701
▁invo	-2702
▁main	-2703
▁genees	-2704
8.	-2705
▁Financi	-2706
▁zelfstand	-2707
▁liste	-2708
▁huis	-2709
▁commission	-2710
▁flam	-2711
application	-2712
▁aanleiding	-2713
▁webs	-2714
toe	-2715
activ	-2716
▁subs	-2717
▁blijven	-2718
▁ils	-2719
poni	-2720
atoire	-2721
▁ander	-2722
▁toegang	-2723
▁citoyens	-2724
prijs	-2725
▁afgelopen	-2726
idents	-2727
▁jongste	-2728
▁pension	-2729
▁nouveaux	-2730
UE	-2731
▁Uit	-2732
▁vak	-2733
▁Waarom	-2734
icile	-2735
▁maand	-2736
▁verder	-2737
plitsing	-2738
0,	-2739
elijkheid	-2740
werpen	-2741
▁nodig	-2742
oef	-2743
part	-2744
▁willen	-2745
Al	-2746
inde	-2747
▁rele	-2748
▁moyen	-2749
▁compr	-2750
▁voit	-2751
▁quand	-2752
bru	-2753
▁ond	-2754
▁vlucht	-2755
▁extra	-2756
▁An	-2757
▁gemeente	-2758
iging	-2759
gelijke	-2760
aus	-2761
endes	-2762
▁occ	-2763
▁suivantes	-2764
rovi	-2765
▁gemeenten	-2766
▁november	-2767
▁demandeurs	-2768
▁zowel	-2769
duction	-2770
▁duidelijk	-2771
ni	-2772
▁Cour	-2773
▁outre	-2774
pri	-2775
▁nam	-2776
▁risque	-2777
emdelingen	-2778
dam	-2779
▁ferrovi	-2780
▁novembre	-2781
wijl	-2782
▁ailleurs	-2783
pect	-2784
▁toutes	-2785
▁enfants	-2786
emploi	-2787
raagd	-2788
▁zeer	-2789
▁2018,	-2790
bev	-2791
ras	-2792
ost	-2793
heure	-2794
▁Li	-2795
unten	-2796
▁Feder	-2797
gal	-2798
▁alleen	-2799
▁permis	-2800
istr	-2801
▁particulier	-2802
▁gesch	-2803
rec	-2804
loss	-2805
rant	-2806
itaire	-2807
pak	-2808
▁aujourd	-2809
▁'	-2810
▁achter	-2811
▁respectie	-2812
inte	-2813
raak	-2814
▁octobre	-2815
veren	-2816
diend	-2817
pes	-2818
▁Wallon	-2819
▁april	-2820
asse	-2821
▁bekend	-2822
▁donner	-2823
▁Ex	-2824
▁dig	-2825
ane	-2826
vient	-2827
lig	-2828
▁lo	-2829
▁disponi	-2830
▁eux	-2831
▁zelfs	-2832
▁bestaat	-2833
▁rekening	-2834
▁elke	-2835
▁lijn	-2836
▁Justice	-2837
▁centres	-2838
tenus	-2839
▁suivi	-2840
▁voorz	-2841
▁Dis	-2842
▁gares	-2843
▁vallen	-2844
▁interven	-2845
cessi	-2846
▁glob	-2847
▁steun	-2848
▁parlement	-2849
▁soient	-2850
▁terme	-2851
mene	-2852
▁bestuur	-2853
ctive	-2854
▁polici	-2855
▁qualit	-2856
▁mission	-2857
▁Bent	-2858
▁celle	-2859
▁zorgen	-2860
▁terroris	-2861
stit	-2862
▁wie	-2863
▁Zaken	-2864
ategorie	-2865
avantage	-2866
▁beleids	-2867
▁recommand	-2868
accueil	-2869
laanderen	-2870
daag	-2871
antie	-2872
vid	-2873
▁voorwaarden	-2874
▁gedaan	-2875
▁Gr	-2876
▁commune	-2877
▁bpost	-2878
riel	-2879
ologi	-2880
▁Mar	-2881
."	-2882
▁prix	-2883
▁toekomst	-2884
atieve	-2885
▁destin	-2886
sente	-2887
trent	-2888
▁eind	-2889
▁elles	-2890
iser	-2891
▁meest	-2892
aam	-2893
etes	-2894
atiek	-2895
alingen	-2896
▁indemn	-2897
▁overeen	-2898
▁revenus	-2899
issements	-2900
▁openbare	-2901
▁maladie	-2902
▁mede	-2903
▁ziekte	-2904
huis	-2905
▁Staat	-2906
staten	-2907
▁beste	-2908
▁medische	-2909
cer	-2910
▁syn	-2911
▁sites	-2912
▁centre	-2913
▁initiatieven	-2914
▁arrondissement	-2915
ettes	-2916
seau	-2917
▁ru	-2918
▁rem	-2919
decins	-2920
wezig	-2921
pendants	-2922
▁lib	-2923
▁pat	-2924
ordre	-2925
▁diplom	-2926
gles	-2927
▁administrations	-2928
auc	-2929
▁meld	-2930
erken	-2931
▁log	-2932
▁nieuw	-2933
prim	-2934
▁Werd	-2935
▁september	-2936
.3.	-2937
▁pil	-2938
▁poten	-2939
rations	-2940
▁colle	-2941
AF	-2942
▁condam	-2943
▁respectiev	-2944
▁faits	-2945
▁Ze	-2946
▁septembre	-2947
▁judiciaire	-2948
▁volont	-2949
landre	-2950
▁oploss	-2951
).1.	-2952
ilijk	-2953
▁gesloten	-2954
br	-2955
▁offici	-2956
aste	-2957
dence	-2958
liv	-2959
tex	-2960
chte	-2961
▁oor	-2962
▁comb	-2963
▁Or	-2964
noot	-2965
dica	-2966
▁avril	-2967
fs	-2968
teerd	-2969
entes	-2970
▁aank	-2971
▁appr	-2972
▁fut	-2973
▁Om	-2974
▁durant	-2975
▁journ	-2976
▁voyageurs	-2977
▁Unie	-2978
beleid	-2979
clus	-2980
erts	-2981
▁patients	-2982
▁crit	-2983
ieel	-2984
▁loop	-2985
▁recher	-2986
mma	-2987
▁Justitie	-2988
▁missions	-2989
ueerd	-2990
az	-2991
▁arri	-2992
roepen	-2993
iquement	-2994
net	-2995
▁font	-2996
▁veroor	-2997
rain	-2998
▁tar	-2999
▁straf	-3000
▁actions	-3001
:1.	-3002
▁advies	-3003
▁Europees	-3004
▁seraient	-3005
tres	-3006
▁lanc	-3007
▁install	-3008
▁opnieuw	-3009
▁bijk	-3010
▁publi	-3011
▁opsplitsing	-3012
vrier	-3013
▁mogen	-3014
▁oui	-3015
▁trib	-3016
bruari	-3017
▁appel	-3018
▁vermeld	-3019
CE	-3020
▁Merci	-3021
▁Flandre	-3022
▁vier	-3023
▁termes	-3024
▁vervol	-3025
▁dispose	-3026
▁gek	-3027
▁vanaf	-3028
nootsch	-3029
▁werking	-3030
▁condamn	-3031
▁slechts	-3032
▁tien	-3033
▁dernier	-3034
▁reizigers	-3035
bank	-3036
▁mand	-3037
▁februari	-3038
▁lijst	-3039
▁geweld	-3040
jes	-3041
▁commer	-3042
▁pouv	-3043
▁vandaag	-3044
quel	-3045
▁dezelfde	-3046
orter	-3047
▁recru	-3048
▁constru	-3049
ogen	-3050
▁dimin	-3051
gif	-3052
▁institu	-3053
▁toutefois	-3054
▁zw	-3055
ivers	-3056
▁ingediend	-3057
lar	-3058
nov	-3059
oot	-3060
aces	-3061
▁1,	-3062
▁sec	-3063
▁Raad	-3064
▁voorkomen	-3065
quences	-3066
▁zes	-3067
titution	-3068
▁terugbet	-3069
ening	-3070
▁waarvan	-3071
▁neen	-3072
rol	-3073
▁pouvez	-3074
▁recours	-3075
▁stappen	-3076
▁investis	-3077
ss	-3078
▁buitenlandse	-3079
eurs	-3080
veill	-3081
▁actie	-3082
▁dispositions	-3083
ctuel	-3084
▁actuelle	-3085
gions	-3086
aill	-3087
▁heures	-3088
▁evolutie	-3089
kosten	-3090
▁brengen	-3091
▁autoris	-3092
cap	-3093
▁budg	-3094
▁Wordt	-3095
▁mogelijkheid	-3096
▁kle	-3097
▁aanvragen	-3098
ureau	-3099
▁connaissance	-3100
▁instellingen	-3101
▁vou	-3102
▁inspe	-3103
tw	-3104
obil	-3105
▁Met	-3106
produ	-3107
▁mater	-3108
gegeven	-3109
eens	-3110
▁bedo	-3111
▁pratique	-3112
▁burgers	-3113
information	-3114
ggen	-3115
werkt	-3116
arch	-3117
cial	-3118
▁concertation	-3119
▁hoogte	-3120
▁commerci	-3121
▁bevoegdheid	-3122
anal	-3123
aanse	-3124
▁refus	-3125
▁agr	-3126
uestions	-3127
▁strat	-3128
bas	-3129
▁strijd	-3130
gem	-3131
▁2016.	-3132
▁name	-3133
ervorming	-3134
▁redenen	-3135
cisions	-3136
▁partir	-3137
▁bescherming	-3138
5).	-3139
airen	-3140
▁proch	-3141
▁dix	-3142
▁aanb	-3143
leid	-3144
issent	-3145
▁invester	-3146
▁voort	-3147
▁tribun	-3148
▁visant	-3149
bedrijven	-3150
)?2.	-3151
▁Werden	-3152
▁schrift	-3153
▁Pl	-3154
orden	-3155
▁aanzien	-3156
ban	-3157
▁wetgeving	-3158
esten	-3159
aliser	-3160
Cette	-3161
▁relev	-3162
conomique	-3163
▁cro	-3164
ination	-3165
▁important	-3166
▁100	-3167
▁politiez	-3168
kort	-3169
▁voe	-3170
iteits	-3171
▁Belgisch	-3172
▁evaluatie	-3173
▁2011,	-3174
indre	-3175
matiek	-3176
▁moyenne	-3177
werkers	-3178
▁nombreuses	-3179
ards	-3180
glementation	-3181
▁Sinds	-3182
▁rol	-3183
▁telle	-3184
▁moeilijk	-3185
itter	-3186
huizen	-3187
ma	-3188
will	-3189
▁zodat	-3190
▁cabinet	-3191
asion	-3192
▁publiques	-3193
akkoord	-3194
▁justice	-3195
▁constitu	-3196
crite	-3197
▁organ	-3198
▁montants	-3199
▁infrastruct	-3200
▁fonds	-3201
uxemb	-3202
proken	-3203
▁respectievelijk	-3204
▁pendant	-3205
▁maakt	-3206
▁vente	-3207
▁opvang	-3208
▁betalen	-3209
▁sommige	-3210
▁Finances	-3211
oven	-3212
▁maatregel	-3213
ringen	-3214
▁suffis	-3215
▁hy	-3216
▁impos	-3217
publ	-3218
▁Ins	-3219
▁29	-3220
rijden	-3221
▁mij	-3222
ception	-3223
50	-3224
▁trait	-3225
▁akk	-3226
▁quat	-3227
sector	-3228
▁instru	-3229
▁sensibil	-3230
▁grens	-3231
rog	-3232
▁hierover	-3233
▁effectief	-3234
▁Af	-3235
▁statistiques	-3236
raagt	-3237
ersteun	-3238
10	-3239
tudes	-3240
iceerd	-3241
geschreven	-3242
?�	-3243
▁Cont	-3244
▁brand	-3245
project	-3246
entr	-3247
▁inbre	-3248
▁financement	-3249
▁effectivement	-3250
cties	-3251
▁soort	-3252
ociations	-3253
▁fonctionnaires	-3254
▁TVA	-3255
▁seu	-3256
▁celles	-3257
mming	-3258
ez	-3259
aanv	-3260
indt	-3261
▁ci	-3262
▁grondgebied	-3263
ori	-3264
liorer	-3265
▁toest	-3266
hom	-3267
luit	-3268
▁beschikbaar	-3269
▁contribu	-3270
▁concur	-3271
▁hoofd	-3272
pliquer	-3273
▁candid	-3274
▁stelde	-3275
cessaire	-3276
ali	-3277
staan	-3278
▁Antwoorden	-3279
uig	-3280
▁Dispose	-3281
▁statuut	-3282
tences	-3283
wegen	-3284
raad	-3285
▁commissie	-3286
estre	-3287
▁tweede	-3288
▁2014-201	-3289
▁Sur	-3290
gration	-3291
NA	-3292
gement	-3293
▁beter	-3294
▁estim	-3295
▁altern	-3296
▁concrete	-3297
hout	-3298
penses	-3299
▁ministres	-3300
zaam	-3301
groep	-3302
▁individ	-3303
claration	-3304
▁vanuit	-3305
getrokken	-3306
uw	-3307
2).	-3308
issen	-3309
▁2015.	-3310
▁bijzonder	-3311
▁permettre	-3312
▁administration	-3313
▁zeker	-3314
▁waardoor	-3315
▁rembour	-3316
stige	-3317
▁grande	-3318
gn	-3319
tite	-3320
▁prise	-3321
6).	-3322
aques	-3323
OM	-3324
▁nature	-3325
ris	-3326
iteria	-3327
▁atten	-3328
iseerde	-3329
▁standpunt	-3330
▁Ook	-3331
▁six	-3332
▁treinen	-3333
▁davantage	-3334
▁coll	-3335
▁betaald	-3336
▁formul	-3337
▁beroeps	-3338
▁respec	-3339
▁producten	-3340
▁Kon	-3341
▁tels	-3342
▁cong	-3343
▁essen	-3344
▁verkeers	-3345
dag	-3346
▁daarbij	-3347
▁elektron	-3348
idt	-3349
▁gewe	-3350
▁nucl	-3351
▁onlangs	-3352
▁radic	-3353
▁staats	-3354
▁mogelijke	-3355
▁ie	-3356
cies	-3357
▁lesquelles	-3358
rim	-3359
rif	-3360
ualit	-3361
▁Nationale	-3362
▁voertuigen	-3363
▁lijk	-3364
▁dagen	-3365
▁volledig	-3366
▁kostprijs	-3367
▁conform	-3368
Europ	-3369
▁btw	-3370
▁infractions	-3371
▁54	-3372
controle	-3373
▁asielzoekers	-3374
▁consommation	-3375
erende	-3376
▁us	-3377
inspe	-3378
cour	-3379
1).	-3380
▁priorit	-3381
▁geregistre	-3382
▁Europa	-3383
▁dron	-3384
ourg	-3385
commun	-3386
▁manque	-3387
▁terrorisme	-3388
▁Sch	-3389
▁Worden	-3390
kens	-3391
▁Duit	-3392
▁Que	-3393
omende	-3394
▁adapt	-3395
matig	-3396
▁ferm	-3397
ribution	-3398
lectronique	-3399
termin	-3400
▁wegens	-3401
▁avis	-3402
▁syndic	-3403
▁linguistique	-3404
tegenwoord	-3405
▁gemiddelde	-3406
IP	-3407
▁ble	-3408
▁Franse	-3409
▁schriftelijke	-3410
▁opleiding	-3411
▁program	-3412
ays	-3413
fait	-3414
name	-3415
▁bezorgen	-3416
nements	-3417
▁aanbev	-3418
avenir	-3419
▁terwijl	-3420
▁maximum	-3421
▁risques	-3422
▁militairen	-3423
▁charg	-3424
IB	-3425
▁gebouwen	-3426
▁fig	-3427
▁sanc	-3428
timent	-3429
4).	-3430
▁Lors	-3431
▁vooral	-3432
eks	-3433
rief	-3434
ret	-3435
jari	-3436
▁existe	-3437
▁cause	-3438
▁voeren	-3439
▁human	-3440
▁Vlaamse	-3441
▁potenti	-3442
▁richtlijn	-3443
jaar	-3444
▁Quand	-3445
▁ondersteun	-3446
▁va	-3447
▁fond	-3448
3).	-3449
▁vennootsch	-3450
temps	-3451
▁gelijk	-3452
▁surveill	-3453
▁ondernemingen	-3454
▁exist	-3455
rein	-3456
tiss	-3457
▁secr	-3458
▁toch	-3459
dust	-3460
middel	-3461
▁Intern	-3462
▁burger	-3463
▁hiervoor	-3464
Ce	-3465
▁weten	-3466
▁prison	-3467
▁det	-3468
cept	-3469
▁wijze	-3470
▁beschikken	-3471
gre	-3472
▁2015-201	-3473
▁behandeling	-3474
zon	-3475
aise	-3476
aalde	-3477
▁bijkomende	-3478
viter	-3479
7).	-3480
autre	-3481
▁campagne	-3482
entreprise	-3483
rit	-3484
regen	-3485
▁perman	-3486
cedures	-3487
▁verkoop	-3488
▁opgenomen	-3489
▁plaatsen	-3490
▁problematiek	-3491
ore	-3492
objec	-3493
▁Binnen	-3494
▁bre	-3495
ennis	-3496
ensez	-3497
expl	-3498
maal	-3499
tier	-3500
icult	-3501
belast	-3502
assurance	-3503
venir	-3504
▁40	-3505
enqu	-3506
oires	-3507
▁werkge	-3508
▁economische	-3509
▁Ne	-3510
▁verlen	-3511
▁stij	-3512
hol	-3513
zak	-3514
vues	-3515
aisse	-3516
▁altijd	-3517
▁transpar	-3518
mand	-3519
▁France	-3520
▁ressor	-3521
▁pourcentage	-3522
▁entra	-3523
▁We	-3524
▁confirm	-3525
ouvert	-3526
▁vu	-3527
gebruik	-3528
etb	-3529
▁avaient	-3530
▁lesquels	-3531
CM	-3532
ming	-3533
stitut	-3534
▁famili	-3535
▁kandid	-3536
▁openbaar	-3537
▁wijzig	-3538
ijks	-3539
rechten	-3540
Or	-3541
quet	-3542
▁aurait	-3543
▁zetten	-3544
▁2009	-3545
▁ressort	-3546
guli	-3547
▁envisag	-3548
▁administratieve	-3549
olen	-3550
▁bevesti	-3551
▁population	-3552
richting	-3553
▁policiers	-3554
▁regeling	-3555
▁uitvoering	-3556
▁verantwoord	-3557
▁fonctionnement	-3558
iezen	-3559
▁licht	-3560
▁Brussels	-3561
9).	-3562
▁rapide	-3563
▁categorie	-3564
eel	-3565
▁hog	-3566
reca	-3567
duire	-3568
dicaments	-3569
▁uur	-3570
▁exerc	-3571
▁verlo	-3572
verlening	-3573
▁points	-3574
nam	-3575
livr	-3576
oper	-3577
tudi	-3578
nhout	-3579
issant	-3580
▁forme	-3581
oute	-3582
▁Serv	-3583
▁praktijk	-3584
8,	-3585
reet	-3586
vue	-3587
irme	-3588
▁mul	-3589
landen	-3590
gev	-3591
kant	-3592
▁devrait	-3593
▁wettelijke	-3594
▁verstre	-3595
▁fav	-3596
gezond	-3597
ption	-3598
enschapp	-3599
tablissements	-3600
▁sti	-3601
▁regels	-3602
▁discrimin	-3603
uken	-3604
▁derde	-3605
▁telles	-3606
▁comptez	-3607
▁propor	-3608
▁werklo	-3609
▁activiteiten	-3610
▁effic	-3611
▁tewerk	-3612
▁sanctions	-3613
amin	-3614
orme	-3615
▁Als	-3616
nomen	-3617
ankrijk	-3618
▁schade	-3619
▁Soci	-3620
roffen	-3621
sident	-3622
vision	-3623
acement	-3624
▁5.	-3625
hal	-3626
▁indemnit	-3627
ela	-3628
ners	-3629
▁limit	-3630
▁calend	-3631
▁terror	-3632
agens	-3633
suite	-3634
▁Veren	-3635
gue	-3636
vironnement	-3637
zijds	-3638
▁neemt	-3639
▁website	-3640
▁vluchtelingen	-3641
▁ging	-3642
▁keer	-3643
▁slachtoffers	-3644
?8.	-3645
▁and	-3646
▁quatre	-3647
▁kabinet	-3648
8).	-3649
▁cotis	-3650
▁waarop	-3651
▁institutions	-3652
auv	-3653
▁feit	-3654
ventuele	-3655
▁collaboration	-3656
ionn	-3657
ords	-3658
ouwd	-3659
▁rencont	-3660
▁Luxemb	-3661
2,	-3662
basis	-3663
▁sais	-3664
▁calendrier	-3665
▁Code	-3666
▁face	-3667
.-	-3668
▁domicile	-3669
hi	-3670
agn	-3671
riques	-3672
gesloten	-3673
▁criteria	-3674
▁initiatief	-3675
diction	-3676
▁proces	-3677
▁aard	-3678
uments	-3679
▁alloc	-3680
▁phy	-3681
▁2016?	-3682
▁biais	-3683
▁interne	-3684
leur	-3685
▁bevol	-3686
▁ferroviaire	-3687
▁trou	-3688
versch	-3689
▁accompag	-3690
▁octro	-3691
▁fais	-3692
▁conten	-3693
▁milieu	-3694
▁contrat	-3695
▁Disposez	-3696
enen	-3697
▁directe	-3698
▁blijft	-3699
▁overtre	-3700
col	-3701
▁spra	-3702
▁tari	-3703
dingen	-3704
cessaires	-3705
▁communication	-3706
▁appl	-3707
▁vroe	-3708
▁akkoord	-3709
▁waarvoor	-3710
▁respectivement	-3711
▁hadden	-3712
Questions	-3713
▁gerechtelijke	-3714
gale	-3715
tenu	-3716
▁ouver	-3717
▁pratiques	-3718
▁organisations	-3719
rap	-3720
tituut	-3721
▁Pourquoi	-3722
▁gezondheids	-3723
meen	-3724
▁gedetine	-3725
IS	-3726
▁identif	-3727
dia	-3728
▁CP	-3729
▁gebeurt	-3730
odes	-3731
mentaire	-3732
▁domaine	-3733
▁tit	-3734
▁begro	-3735
atten	-3736
▁autor	-3737
▁zelfstandigen	-3738
idi	-3739
ignes	-3740
contra	-3741
▁precies	-3742
▁gebeuren	-3743
▁pourraient	-3744
▁sociaux	-3745
▁opdracht	-3746
▁eventuele	-3747
▁Vlaanderen	-3748
ose	-3749
▁lutter	-3750
▁chiffre	-3751
▁pourriez	-3752
Op	-3753
▁Syri	-3754
▁physi	-3755
objectif	-3756
▁essenti	-3757
delen	-3758
▁proposition	-3759
▁remboursement	-3760
lega	-3761
▁langer	-3762
▁Frankrijk	-3763
impact	-3764
▁carte	-3765
▁relatifs	-3766
▁civile	-3767
acte	-3768
▁reste	-3769
verk	-3770
haven	-3771
erings	-3772
▁signal	-3773
▁social	-3774
ankelijk	-3775
▁flamand	-3776
informations	-3777
vestig	-3778
▁georgan	-3779
▁politieke	-3780
▁vergelijk	-3781
ool	-3782
▁aanwezig	-3783
▁consommateurs	-3784
▁ervoor	-3785
OC	-3786
cle	-3787
ruk	-3788
▁parc	-3789
atoren	-3790
ficier	-3791
bes	-3792
▁puis	-3793
vail	-3794
ienst	-3795
▁Pays	-3796
▁boetes	-3797
▁onderzoeken	-3798
ijden	-3799
▁inkomsten	-3800
▁voldoende	-3801
▁oog	-3802
▁bedrijfs	-3803
▁cer	-3804
▁the	-3805
▁rendre	-3806
vou	-3807
▁trop	-3808
▁derniers	-3809
▁fl	-3810
▁dot	-3811
ffice	-3812
▁Cons	-3813
▁heden	-3814
▁Beschikt	-3815
▁jou	-3816
3,	-3817
▁dre	-3818
▁capacit	-3819
ov	-3820
▁tab	-3821
titue	-3822
▁hele	-3823
izen	-3824
▁certain	-3825
adering	-3826
▁solution	-3827
▁Antwerpen	-3828
MI	-3829
▁hiervan	-3830
9.	-3831
omst	-3832
▁famille	-3833
▁parmi	-3834
Institut	-3835
▁comptes	-3836
▁invoering	-3837
mun	-3838
▁Aan	-3839
▁Hebt	-3840
▁amendes	-3841
▁compens	-3842
Bas	-3843
▁geleden	-3844
pas	-3845
▁maj	-3846
▁toelichten	-3847
rik	-3848
diging	-3849
ophones	-3850
uelle	-3851
▁beso	-3852
dent	-3853
▁lic	-3854
moins	-3855
▁acties	-3856
▁collega	-3857
▁nav	-3858
▁inbreuken	-3859
nent	-3860
▁effici	-3861
▁mises	-3862
▁ingezet	-3863
▁Door	-3864
▁habit	-3865
▁Reg	-3866
moet	-3867
igers	-3868
kaart	-3869
▁contex	-3870
▁eerder	-3871
▁kennis	-3872
▁gebracht	-3873
▁difficult	-3874
▁alimentaire	-3875
oul	-3876
▁Cent	-3877
▁sprake	-3878
oct	-3879
onde	-3880
▁sens	-3881
achten	-3882
▁modif	-3883
▁gehouden	-3884
▁adopt	-3885
▁politiques	-3886
aison	-3887
airement	-3888
aite	-3889
sm	-3890
apr	-3891
▁constitue	-3892
to	-3893
▁appliqu	-3894
▁algemene	-3895
▁60	-3896
▁adress	-3897
▁partenaires	-3898
▁lijkt	-3899
vus	-3900
▁voi	-3901
Vragen	-3902
▁exter	-3903
Vol	-3904
tence	-3905
▁conna	-3906
▁porte	-3907
▁retard	-3908
▁appro	-3909
agenten	-3910
▁objectifs	-3911
organisation	-3912
▁tic	-3913
verze	-3914
▁Best	-3915
tussen	-3916
esp	-3917
exerc	-3918
▁weer	-3919
rir	-3920
genaam	-3921
ijna	-3922
▁mobilit	-3923
gan	-3924
▁kil	-3925
kings	-3926
▁drug	-3927
handel	-3928
ruxell	-3929
agers	-3930
▁verz	-3931
▁seulement	-3932
▁ontwikkeling	-3933
▁centra	-3934
▁algemeen	-3935
▁investeringen	-3936
CT	-3937
▁radi	-3938
▁toegekend	-3939
▁2,	-3940
uele	-3941
rab	-3942
sol	-3943
ventie	-3944
▁omtrent	-3945
▁schul	-3946
gegevens	-3947
▁gevraagd	-3948
▁bieden	-3949
gestelde	-3950
▁lorsque	-3951
▁abs	-3952
▁aucune	-3953
▁calcul	-3954
RA	-3955
amp	-3956
iger	-3957
▁jongeren	-3958
gaven	-3959
▁beschikking	-3960
▁lieux	-3961
TA	-3962
▁dang	-3963
kelings	-3964
▁retour	-3965
keringen	-3966
▁minimum	-3967
▁ern	-3968
install	-3969
urgence	-3970
▁nodige	-3971
▁volgen	-3972
▁projecten	-3973
▁ach	-3974
licht	-3975
▁Sant	-3976
▁entit	-3977
Volgens	-3978
▁pap	-3979
▁faut	-3980
▁rapp	-3981
aatschappij	-3982
gifte	-3983
pression	-3984
▁Pr	-3985
▁beschikt	-3986
1,	-3987
adi	-3988
eter	-3989
▁goede	-3990
▁lidstaten	-3991
▁recherche	-3992
▁permettant	-3993
▁inc	-3994
itenti	-3995
▁voeds	-3996
▁Ve	-3997
quis	-3998
▁disposent	-3999
▁2015-2016,	-4000
▁Fed	-4001
▁onders	-4002
▁Turnhout	-4003
Zo	-4004
▁fiets	-4005
▁conclusions	-4006
▁VN	-4007
avis	-4008
▁feiten	-4009
lop	-4010
▁hal	-4011
▁advoc	-4012
▁Lim	-4013
▁lignes	-4014
ventueel	-4015
▁zogenaam	-4016
▁opger	-4017
▁2015?	-4018
veiligheid	-4019
▁investissements	-4020
▁salari	-4021
▁geregistreerd	-4022
gekeur	-4023
▁vere	-4024
▁leden	-4025
▁parket	-4026
▁annuelle	-4027
▁organisatie	-4028
standig	-4029
ih	-4030
kenen	-4031
▁stop	-4032
▁wets	-4033
▁recommandations	-4034
weegt	-4035
dom	-4036
valid	-4037
▁Conf	-4038
ack	-4039
▁Ho	-4040
▁monde	-4041
analyse	-4042
oth	-4043
▁alco	-4044
▁operation	-4045
▁oplossing	-4046
30	-4047
SCA	-4048
▁surveillance	-4049
tegr	-4050
uter	-4051
roport	-4052
▁recent	-4053
atief	-4054
▁begin	-4055
▁mine	-4056
Office	-4057
▁2016-201	-4058
tablissement	-4059
exp	-4060
gaande	-4061
plaats	-4062
▁route	-4063
▁juridique	-4064
▁augmentation	-4065
An	-4066
▁hervorming	-4067
▁gedetineerden	-4068
▁Ad	-4069
Een	-4070
aucoup	-4071
▁reprises	-4072
gio	-4073
ivi	-4074
houding	-4075
crit	-4076
digd	-4077
asil	-4078
▁vor	-4079
▁vinden	-4080
▁vrijwill	-4081
beg	-4082
▁hi	-4083
tijds	-4084
▁distribu	-4085
▁uits	-4086
▁tiers	-4087
ovendien	-4088
tsen	-4089
▁wereld	-4090
aring	-4091
staat	-4092
cution	-4093
▁vormen	-4094
▁financiering	-4095
duidelijk	-4096
Par	-4097
�?2.	-4098
▁Naar	-4099
investis	-4100
▁Tij	-4101
▁fi	-4102
▁belangrijke	-4103
�.1.	-4104
▁sembl	-4105
▁aandacht	-4106
NG	-4107
wor	-4108
zame	-4109
▁198	-4110
▁Comit	-4111
▁aanbevelingen	-4112
AVV	-4113
▁handel	-4114
▁energie	-4115
▁document	-4116
▁getroffen	-4117
▁gevaar	-4118
oden	-4119
maken	-4120
▁bruxell	-4121
▁eveneens	-4122
▁judiciaires	-4123
bat	-4124
▁signif	-4125
activit	-4126
rijding	-4127
alif	-4128
occup	-4129
▁travaill	-4130
▁conse	-4131
voqu	-4132
▁sancties	-4133
4,	-4134
arg	-4135
▁vac	-4136
▁minst	-4137
sentent	-4138
▁change	-4139
imm	-4140
ran	-4141
centrum	-4142
komstig	-4143
▁cli	-4144
ruiken	-4145
▁Rijks	-4146
▁sorte	-4147
▁consumenten	-4148
pol	-4149
▁temp	-4150
▁start	-4151
ouverture	-4152
▁directive	-4153
▁tegenover	-4154
Europe	-4155
▁consul	-4156
▁nad	-4157
▁devant	-4158
▁direction	-4159
enf	-4160
▁insch	-4161
▁mieux	-4162
plitsen	-4163
▁drones	-4164
han	-4165
oemde	-4166
progra	-4167
▁Parmi	-4168
ote	-4169
keren	-4170
▁eens	-4171
▁types	-4172
▁meerdere	-4173
▁verbeteren	-4174
assi	-4175
waarde	-4176
▁voorstel	-4177
bruik	-4178
ffing	-4179
gevallen	-4180
▁esp	-4181
▁vacc	-4182
▁Fonds	-4183
ignement	-4184
▁bedraagt	-4185
▁disponibles	-4186
▁onts	-4187
▁souhaite	-4188
▁voorziet	-4189
Er	-4190
ator	-4191
uurd	-4192
ustus	-4193
▁seks	-4194
tements	-4195
IR	-4196
laag	-4197
▁verwij	-4198
▁cependant	-4199
▁parlementaire	-4200
atform	-4201
▁markt	-4202
▁gevangenissen	-4203
▁mot	-4204
▁Zullen	-4205
▁appare	-4206
dan	-4207
▁cha	-4208
ijven	-4209
▁toeg	-4210
▁eventueel	-4211
aug	-4212
▁bal	-4213
▁moder	-4214
▁inflig	-4215
▁minderjari	-4216
▁zogenaamde	-4217
ormais	-4218
istance	-4219
▁online	-4220
▁voitures	-4221
aille	-4222
▁prol	-4223
▁seul	-4224
▁Onder	-4225
sormais	-4226
▁soumis	-4227
▁Pol	-4228
drage	-4229
▁2017?	-4230
▁annuellement	-4231
▁augustus	-4232
kond	-4233
▁Pers	-4234
▁scien	-4235
▁noodzak	-4236
aatregelen	-4237
▁goedgekeur	-4238
▁administraties	-4239
▁jaarbasis	-4240
▁2014-2015,	-4241
ook	-4242
oneel	-4243
▁verv	-4244
zondere	-4245
▁certif	-4246
volueerd	-4247
▁parfois	-4248
▁humanitaire	-4249
▁coord	-4250
▁Fedasil	-4251
▁top	-4252
▁portant	-4253
belasting	-4254
mont	-4255
▁engag	-4256
▁plannen	-4257
▁opgelegd	-4258
Je	-4259
▁Zou	-4260
▁mort	-4261
import	-4262
gues	-4263
zetten	-4264
gezondheid	-4265
▁percentage	-4266
▁CE	-4267
▁suc	-4268
ariat	-4269
ein	-4270
▁impl	-4271
IC	-4272
▁sm	-4273
ieve	-4274
▁bon	-4275
▁nut	-4276
ources	-4277
uelles	-4278
ciale	-4279
▁vlie	-4280
dition	-4281
▁partij	-4282
▁beaucoup	-4283
.4.	-4284
ina	-4285
".1.	-4286
▁zult	-4287
ennent	-4288
▁evenwel	-4289
▁opdeling	-4290
▁Te	-4291
▁wap	-4292
▁code	-4293
▁ruim	-4294
change	-4295
quence	-4296
overeen	-4297
sus	-4298
▁Fran	-4299
regeling	-4300
▁Gewesten	-4301
ess	-4302
▁thuis	-4303
anmoins	-4304
atische	-4305
ME	-4306
inig	-4307
ije	-4308
▁acht	-4309
▁cult	-4310
▁uite	-4311
▁2014.	-4312
▁vertra	-4313
▁aangezien	-4314
▁bevestigen	-4315
▁prijs	-4316
▁financ	-4317
▁justif	-4318
▁demander	-4319
▁programme	-4320
rez	-4321
▁entr	-4322
▁kwes	-4323
alisering	-4324
zend	-4325
▁Existe	-4326
ock	-4327
▁octroy	-4328
▁documents	-4329
▁zaak	-4330
▁mondi	-4331
▁plate	-4332
plich	-4333
▁herk	-4334
ronti	-4335
unning	-4336
▁aanpak	-4337
▁compar	-4338
▁ventilation	-4339
;2.	-4340
onom	-4341
▁gebre	-4342
▁regelgeving	-4343
▁elektronische	-4344
▁gebruiken	-4345
abil	-4346
▁poss	-4347
▁waarmee	-4348
▁vreemdelingen	-4349
▁stad	-4350
▁ressortiss	-4351
reur	-4352
menten	-4353
absence	-4354
▁Konink	-4355
homme	-4356
▁functie	-4357
▁Kun	-4358
▁enige	-4359
▁rechts	-4360
▁Wallonie	-4361
..	-4362
conf	-4363
▁chacune	-4364
oring	-4365
▁cell	-4366
▁lever	-4367
kerings	-4368
▁soutien	-4369
▁envisagez	-4370
▁raad	-4371
▁zicht	-4372
▁Europe	-4373
ocr	-4374
▁peine	-4375
▁provis	-4376
▁diverse	-4377
cam	-4378
wiss	-4379
▁bijna	-4380
▁actief	-4381
▁secteurs	-4382
▁inten	-4383
▁gewest	-4384
▁locale	-4385
▁information	-4386
▁georganiseerd	-4387
▁kant	-4388
erlandais	-4389
▁toegepast	-4390
▁Ont	-4391
▁renforcer	-4392
▁blz	-4393
▁kreeg	-4394
▁onderhand	-4395
▁Mo	-4396
▁2020	-4397
omp	-4398
veer	-4399
▁ord	-4400
▁kern	-4401
delijk	-4402
actie	-4403
▁rechten	-4404
▁Vre	-4405
▁dienen	-4406
▁bepalingen	-4407
▁vols	-4408
▁chacun	-4409
▁Binnenlandse	-4410
▁bek	-4411
plaatsen	-4412
▁sociales	-4413
gl	-4414
▁voie	-4415
▁comit	-4416
▁revenu	-4417
▁tribunal	-4418
▁stuk	-4419
▁geneesmiddelen	-4420
▁ant	-4421
atifs	-4422
▁2017.	-4423
▁islam	-4424
▁aanvraag	-4425
▁sanction	-4426
▁structur	-4427
jo	-4428
▁media	-4429
▁conduire	-4430
▁mentionn	-4431
▁namelijk	-4432
tal	-4433
geme	-4434
▁mut	-4435
kende	-4436
naast	-4437
vocats	-4438
zaak	-4439
▁Wie	-4440
▁pensez	-4441
▁trafic	-4442
▁ziekenhuizen	-4443
oeg	-4444
▁Veilig	-4445
▁Brusselse	-4446
▁proportion	-4447
▁administrative	-4448
▁dienstverlening	-4449
Deze	-4450
echt	-4451
▁bepaalt	-4452
▁vertegenwoord	-4453
▁Me	-4454
▁tests	-4455
rd	-4456
zw	-4457
ienne	-4458
cheiden	-4459
standigheden	-4460
ksgezondheid	-4461
esti	-4462
▁Char	-4463
▁tenu	-4464
utions	-4465
igingen	-4466
opp	-4467
▁sn	-4468
mettre	-4469
▁gemiddeld	-4470
▁soms	-4471
cident	-4472
lexi	-4473
hicule	-4474
▁weinig	-4475
▁exploit	-4476
▁politiezones	-4477
Ces	-4478
▁Dire	-4479
▁opvol	-4480
▁lequel	-4481
commissie	-4482
procedure	-4483
▁partners	-4484
▁departement	-4485
vens	-4486
nemer	-4487
▁produit	-4488
▁kwaliteit	-4489
▁lar	-4490
trait	-4491
▁buur	-4492
leggen	-4493
▁defin	-4494
cifique	-4495
▁luchthaven	-4496
oepen	-4497
taires	-4498
▁lorsqu	-4499
▁toezicht	-4500
stalige	-4501
room	-4502
raken	-4503
▁mens	-4504
usement	-4505
visagez	-4506
zetting	-4507
▁Dienst	-4508
ole	-4509
rans	-4510
pitaux	-4511
▁caract	-4512
avancement	-4513
▁week	-4514
▁deuxi	-4515
▁einde	-4516
alisatie	-4517
CMW	-4518
▁kilom	-4519
▁mate	-4520
▁circulation	-4521
iel	-4522
▁protoc	-4523
▁beslist	-4524
▁convention	-4525
-1	-4526
Hoe	-4527
▁entrepr	-4528
▁artsen	-4529
tings	-4530
▁Belgen	-4531
▁centrum	-4532
▁recente	-4533
▁confront	-4534
▁envisage	-4535
▁ontvang	-4536
▁concreet	-4537
nter	-4538
▁2007	-4539
▁Turk	-4540
cifiques	-4541
▁herkomst	-4542
ubs	-4543
inge	-4544
eraal	-4545
▁bent	-4546
▁kans	-4547
▁uiter	-4548
▁vorige	-4549
ogra	-4550
AFSCA	-4551
▁opleid	-4552
▁impliqu	-4553
verd	-4554
▁gepland	-4555
▁rend	-4556
▁drugs	-4557
▁but	-4558
▁vale	-4559
centra	-4560
▁affect	-4561
▁poursu	-4562
▁facilit	-4563
▁technologie	-4564
bere	-4565
sign	-4566
▁tal	-4567
▁aide	-4568
▁apport	-4569
▁kwestie	-4570
▁politiediensten	-4571
▁mus	-4572
▁Waal	-4573
▁2016-2017,	-4574
▁procedures	-4575
▁organisaties	-4576
Ik	-4577
oter	-4578
▁hau	-4579
opdra	-4580
▁dient	-4581
▁ensuite	-4582
clarations	-4583
▁specifiek	-4584
olu	-4585
▁scientif	-4586
pad	-4587
ware	-4588
▁bilan	-4589
▁consac	-4590
igration	-4591
onnement	-4592
▁factures	-4593
▁vervo	-4594
▁voies	-4595
ologische	-4596
arri	-4597
▁Limb	-4598
alisme	-4599
▁groep	-4600
▁horeca	-4601
ventuellement	-4602
cret	-4603
trek	-4604
▁pak	-4605
exercice	-4606
eng	-4607
pat	-4608
▁aucun	-4609
▁parking	-4610
▁gu	-4611
▁illegale	-4612
▁candidats	-4613
▁2014?	-4614
▁externe	-4615
On	-4616
ilie	-4617
▁OCMW	-4618
▁gecontrole	-4619
SM	-4620
▁rijden	-4621
▁hierbij	-4622
▁terrain	-4623
mal	-4624
▁Syrie	-4625
▁opz	-4626
ctoren	-4627
▁ao	-4628
▁Federaal	-4629
▁Ag	-4630
dire	-4631
▁flexi	-4632
onnen	-4633
▁optim	-4634
ussions	-4635
tisch	-4636
value	-4637
▁quoi	-4638
artsen	-4639
▁35	-4640
▁verlu	-4641
▁analys	-4642
▁kregen	-4643
▁propri	-4644
▁uitbre	-4645
▁ziekenhuis	-4646
▁Cy	-4647
▁vites	-4648
▁accompagn	-4649
▁revient	-4650
▁Economie	-4651
▁pourtant	-4652
autom	-4653
▁avan	-4654
wijzig	-4655
▁supprim	-4656
ietsen	-4657
▁id	-4658
▁Air	-4659
besch	-4660
quipe	-4661
▁syste	-4662
▁forfait	-4663
▁leeftijd	-4664
▁profession	-4665
reden	-4666
▁timing	-4667
▁accidents	-4668
ota	-4669
galit	-4670
anties	-4671
▁fronti	-4672
▁stra	-4673
augment	-4674
▁opgesteld	-4675
orgd	-4676
Agence	-4677
erentie	-4678
itu	-4679
▁beheer	-4680
▁grandes	-4681
▁gekregen	-4682
▁opzichte	-4683
gul	-4684
▁jam	-4685
▁tend	-4686
archie	-4687
▁estime	-4688
▁verluidt	-4689
▁aangekond	-4690
oti	-4691
▁CPAS	-4692
▁dringen	-4693
▁ondernomen	-4694
▁web	-4695
▁Cert	-4696
▁insp	-4697
▁vakb	-4698
urende	-4699
▁contrats	-4700
▁ligt	-4701
bis	-4702
partir	-4703
▁satis	-4704
▁leggen	-4705
▁gaf	-4706
▁2010,	-4707
▁passage	-4708
▁registr	-4709
▁volledige	-4710
ox	-4711
vaar	-4712
▁Gent	-4713
▁manif	-4714
▁daarvoor	-4715
auff	-4716
bren	-4717
aliseren	-4718
mage	-4719
▁vir	-4720
gesproken	-4721
▁landbouw	-4722
veur	-4723
octro	-4724
inatie	-4725
▁wettelijk	-4726
resse	-4727
ub	-4728
ake	-4729
dagen	-4730
irmez	-4731
identit	-4732
▁bleek	-4733
enregist	-4734
▁conducteurs	-4735
lais	-4736
travail	-4737
▁corres	-4738
▁responsabilit	-4739
esel	-4740
iles	-4741
▁doet	-4742
▁vele	-4743
▁natuur	-4744
moe	-4745
vien	-4746
▁garantir	-4747
cup	-4748
str	-4749
▁exact	-4750
▁strate	-4751
vl	-4752
▁70	-4753
▁betaling	-4754
▁ongeveer	-4755
▁rechtstre	-4756
BL	-4757
bewijs	-4758
▁prisons	-4759
▁verminder	-4760
▁goedgekeurd	-4761
▁medewerkers	-4762
uik	-4763
atric	-4764
▁Service	-4765
▁importante	-4766
geer	-4767
aking	-4768
▁Plan	-4769
cessus	-4770
▁pi	-4771
▁amen	-4772
▁bank	-4773
atur	-4774
appro	-4775
abinets	-4776
▁vooruit	-4777
▁collaborateurs	-4778
spe	-4779
▁Kl	-4780
▁bevolking	-4781
▁vennootschap	-4782
▁ken	-4783
gemoet	-4784
▁univers	-4785
othe	-4786
▁Envisagez	-4787
pital	-4788
pagnes	-4789
rateurs	-4790
▁programma	-4791
▁verblijfs	-4792
▁cri	-4793
▁gepubl	-4794
▁bestaande	-4795
▁professionnel	-4796
▁CR	-4797
▁dieren	-4798
▁processus	-4799
▁uitvoeren	-4800
infrastruct	-4801
▁conclusies	-4802
▁Den	-4803
▁regeer	-4804
▁professionnels	-4805
cre	-4806
cijf	-4807
tise	-4808
▁clients	-4809
▁obligatoire	-4810
ider	-4811
▁Hof	-4812
▁entreprise	-4813
▁pouvoirs	-4814
▁digitale	-4815
iedt	-4816
elijks	-4817
▁leiden	-4818
▁steden	-4819
▁werkloos	-4820
▁communicatie	-4821
▁0	-4822
gemaakt	-4823
▁communiqu	-4824
▁mos	-4825
aarten	-4826
▁Ainsi	-4827
▁hoger	-4828
baarheid	-4829
▁geweest	-4830
anti	-4831
▁Int	-4832
▁crise	-4833
▁integr	-4834
Pourriez	-4835
ociation	-4836
▁accords	-4837
▁vergoeding	-4838
▁politieagenten	-4839
sh	-4840
arc	-4841
▁Cela	-4842
▁voir	-4843
▁facturen	-4844
▁aankoop	-4845
▁erkenning	-4846
▁belangrijkste	-4847
▁regio	-4848
▁mandat	-4849
Voor	-4850
ordering	-4851
ga	-4852
▁rece	-4853
▁proven	-4854
uds	-4855
▁let	-4856
▁goederen	-4857
bor	-4858
dits	-4859
uels	-4860
▁objectif	-4861
gar	-4862
ling	-4863
senter	-4864
ventions	-4865
verzekering	-4866
▁slachtoffer	-4867
itt	-4868
▁construction	-4869
AVO	-4870
isen	-4871
▁parce	-4872
▁ambass	-4873
▁experts	-4874
diet	-4875
▁pose	-4876
▁franc	-4877
▁brandwe	-4878
▁vitesse	-4879
▁uitgaven	-4880
aders	-4881
merik	-4882
dicaux	-4883
▁Buiten	-4884
▁vervoer	-4885
▁auraient	-4886
▁initiative	-4887
40	-4888
issait	-4889
▁geeft	-4890
marches	-4891
▁technique	-4892
cad	-4893
▁0,	-4894
agne	-4895
▁gede	-4896
▁tent	-4897
gingen	-4898
▁rapidement	-4899
ED	-4900
icro	-4901
woners	-4902
▁aviez	-4903
▁rendu	-4904
exploit	-4905
obtenir	-4906
▁mineurs	-4907
▁jaarlijkse	-4908
▁alcohol	-4909
▁parquet	-4910
oir	-4911
▁konden	-4912
▁ingevoerd	-4913
IZ	-4914
)?3.	-4915
▁West	-4916
kundige	-4917
▁Sociale	-4918
▁%.	-4919
ijnen	-4920
fications	-4921
▁Aff	-4922
▁aandeel	-4923
▁ongevallen	-4924
▁cotisations	-4925
▁Ter	-4926
▁distin	-4927
▁relevant	-4928
▁correspond	-4929
Ar	-4930
ID	-4931
dis	-4932
ausse	-4933
▁digit	-4934
▁identite	-4935
▁coh	-4936
▁dress	-4937
▁verleden	-4938
▁violence	-4939
▁advocaten	-4940
Com	-4941
▁requ	-4942
▁beide	-4943
▁Centre	-4944
▁toeken	-4945
▁mari	-4946
▁villes	-4947
▁complex	-4948
▁regelmatig	-4949
Selon	-4950
▁data	-4951
▁gedrag	-4952
▁kracht	-4953
passingen	-4954
▁verlaten	-4955
can	-4956
nergie	-4957
▁organismes	-4958
▁Her	-4959
▁quoti	-4960
▁sporen	-4961
entschap	-4962
▁acteurs	-4963
▁terecht	-4964
▁aj	-4965
▁neg	-4966
▁pron	-4967
rieure	-4968
▁assurer	-4969
oel	-4970
lection	-4971
▁verdere	-4972
imes	-4973
▁gelden	-4974
▁restaur	-4975
▁beveilig	-4976
Dit	-4977
oix	-4978
▁won	-4979
▁promo	-4980
▁bespar	-4981
ablement	-4982
▁mogelijkheden	-4983
▁Russ	-4984
▁meille	-4985
▁places	-4986
▁spoorweg	-4987
chtig	-4988
▁visa	-4989
dustrie	-4990
conomiques	-4991
vergoeding	-4992
▁job	-4993
del	-4994
▁bonne	-4995
generaal	-4996
▁recettes	-4997
▁loon	-4998
25	-4999
bers	-5000
oise	-5001
▁emp	-5002
▁correcte	-5003
▁routi	-5004
kkingen	-5005
estation	-5006
ieven	-5007
urent	-5008
punten	-5009
▁attent	-5010
▁encour	-5011
▁migrants	-5012
▁introduites	-5013
▁autoriteiten	-5014
▁terugbetaling	-5015
▁agen	-5016
▁ertoe	-5017
▁tijds	-5018
▁Vreemdelingen	-5019
inf	-5020
ctives	-5021
▁atteint	-5022
▁centrale	-5023
gociations	-5024
▁uitzonder	-5025
infractions	-5026
maatregelen	-5027
▁bijzondere	-5028
iat	-5029
▁Na	-5030
▁Cong	-5031
▁anim	-5032
novation	-5033
omb	-5034
▁Ils	-5035
▁Tra	-5036
ieten	-5037
SS	-5038
poser	-5039
dicale	-5040
inspection	-5041
amenwerking	-5042
dite	-5043
last	-5044
▁heer	-5045
▁Duits	-5046
periode	-5047
▁hausse	-5048
▁Bovendien	-5049
▁erg	-5050
ueill	-5051
▁afge	-5052
▁chem	-5053
quival	-5054
entreprises	-5055
▁cher	-5056
▁Verenigde	-5057
▁opgericht	-5058
Daar	-5059
uite	-5060
▁PME	-5061
▁quotidien	-5062
▁Internation	-5063
▁alimentaires	-5064
nte	-5065
▁taken	-5066
▁banque	-5067
Vous	-5068
dias	-5069
▁aangeven	-5070
▁bijdragen	-5071
egd	-5072
unit	-5073
oupes	-5074
▁spre	-5075
▁leger	-5076
▁gezins	-5077
▁Affaires	-5078
▁note	-5079
▁federaal	-5080
:"	-5081
tout	-5082
▁compos	-5083
▁obtenu	-5084
▁opport	-5085
lid	-5086
▁clim	-5087
▁sectoren	-5088
▁Buitenlandse	-5089
anks	-5090
indi	-5091
gories	-5092
occasion	-5093
▁commerce	-5094
investissement	-5095
ow	-5096
tail	-5097
cription	-5098
▁compris	-5099
Die	-5100
▁Col	-5101
▁blo	-5102
▁Plus	-5103
▁weig	-5104
secret	-5105
▁wagen	-5106
▁krijgt	-5107
▁confirmer	-5108
imaat	-5109
staande	-5110
▁aangepast	-5111
▁uniquement	-5112
-�-	-5113
cel	-5114
▁liv	-5115
leroi	-5116
▁prend	-5117
▁ville	-5118
heffing	-5119
▁gezien	-5120
acements	-5121
▁kind	-5122
▁article	-5123
▁sociaal	-5124
▁tijdpad	-5125
▁application	-5126
▁gerechtelijk	-5127
▁arg	-5128
initi	-5129
▁reis	-5130
▁minstens	-5131
▁poursuiv	-5132
▁gecontroleerd	-5133
▁multi	-5134
▁attribu	-5135
▁oprichting	-5136
▁magistr	-5137
60	-5138
lit	-5139
werv	-5140
gique	-5141
pleegd	-5142
▁secours	-5143
▁plu	-5144
▁afsch	-5145
▁devait	-5146
mie	-5147
▁Roy	-5148
delijke	-5149
▁bureau	-5150
▁interpr	-5151
▁Es	-5152
rouw	-5153
▁Alle	-5154
▁banc	-5155
▁orde	-5156
▁tempor	-5157
▁aanslag	-5158
▁Geme	-5159
▁membre	-5160
▁recour	-5161
▁Walloni	-5162
secretaris	-5163
pondu	-5164
▁gedurende	-5165
9,	-5166
fun	-5167
tigen	-5168
▁technische	-5169
ONU	-5170
pondre	-5171
▁offic	-5172
▁factur	-5173
▁menace	-5174
▁3,	-5175
seur	-5176
stat	-5177
▁auxqu	-5178
GV	-5179
exist	-5180
▁bouw	-5181
▁woon	-5182
Pouvez	-5183
▁reconnaissance	-5184
ultaat	-5185
▁normes	-5186
▁aanslagen	-5187
wagens	-5188
financi	-5189
▁contractuel	-5190
▁noodzakelijk	-5191
▁Mal	-5192
▁Rec	-5193
▁geldt	-5194
▁Commun	-5195
dier	-5196
ennes	-5197
Anvers	-5198
sentants	-5199
▁solutions	-5200
▁gepubliceerd	-5201
decin	-5202
▁choix	-5203
▁effets	-5204
▁ondernemen	-5205
enschappelijke	-5206
oging	-5207
agissait	-5208
ecur	-5209
▁milli	-5210
▁ondersche	-5211
ES	-5212
dente	-5213
ficiaires	-5214
put	-5215
oedings	-5216
▁vooraf	-5217
▁onmiddel	-5218
▁recrutement	-5219
▁canc	-5220
▁valt	-5221
▁carri	-5222
▁partner	-5223
▁prononc	-5224
▁preventie	-5225
▁violences	-5226
▁80	-5227
▁Elle	-5228
▁exper	-5229
▁veren	-5230
;3.	-5231
gales	-5232
▁betaal	-5233
gebracht	-5234
▁circulaire	-5235
▁uitgetrokken	-5236
verkeer	-5237
▁semestre	-5238
▁tegemoet	-5239
▁travailler	-5240
rugge	-5241
ximus	-5242
▁poste	-5243
▁juridische	-5244
octroi	-5245
▁Vlaams	-5246
▁sluiten	-5247
▁overeenkomst	-5248
num	-5249
iller	-5250
itaires	-5251
▁verwacht	-5252
▁Minist	-5253
▁voorsch	-5254
▁incident	-5255
ots	-5256
goed	-5257
�?3.	-5258
isis	-5259
lits	-5260
banken	-5261
▁tarif	-5262
▁observ	-5263
▁publiek	-5264
▁verbonden	-5265
▁tu	-5266
ocont	-5267
▁bijge	-5268
▁helft	-5269
werkings	-5270
▁modification	-5271
ades	-5272
▁500	-5273
▁locales	-5274
▁Instituut	-5275
▁fai	-5276
keerd	-5277
▁juge	-5278
▁ziet	-5279
▁doelstellingen	-5280
▁infrastructuur	-5281
Bel	-5282
▁Bl	-5283
chan	-5284
▁mor	-5285
seaux	-5286
spraak	-5287
▁telef	-5288
▁Amerik	-5289
▁valeur	-5290
programma	-5291
▁instelling	-5292
▁ressortissants	-5293
sies	-5294
▁houdt	-5295
gionale	-5296
▁zitten	-5297
dical	-5298
akings	-5299
▁faveur	-5300
▁langue	-5301
ordening	-5302
▁bedoeling	-5303
▁incidenten	-5304
▁opdrachten	-5305
go	-5306
vaart	-5307
▁coup	-5308
▁passe	-5309
▁mobiliteit	-5310
PI	-5311
ekent	-5312
oblig	-5313
▁uitbet	-5314
▁voorstellen	-5315
achat	-5316
systeem	-5317
▁miljard	-5318
personeel	-5319
▁Confirmez	-5320
▁diminution	-5321
▁allocations	-5322
▁Stat	-5323
▁iedere	-5324
▁puisse	-5325
▁Charleroi	-5326
inc	-5327
▁tand	-5328
▁ticket	-5329
fond	-5330
▁conduite	-5331
▁II	-5332
▁Sp	-5333
introdu	-5334
▁verschil	-5335
▁expliquer	-5336
▁terugkeer	-5337
▁CO	-5338
▁zien	-5339
▁kandidaat	-5340
Af	-5341
▁Gen	-5342
▁weet	-5343
tablir	-5344
▁lange	-5345
▁dispar	-5346
▁reglement	-5347
▁Ou	-5348
onnes	-5349
▁proef	-5350
▁Belges	-5351
▁groter	-5352
▁levens	-5353
kundigen	-5354
▁regeerakkoord	-5355
dus	-5356
tro	-5357
titude	-5358
▁souff	-5359
aciteit	-5360
▁cellule	-5361
▁oef	-5362
▁aller	-5363
▁Kunnen	-5364
▁modifi	-5365
▁cre	-5366
▁ide	-5367
acties	-5368
▁payer	-5369
▁meeste	-5370
aanvragen	-5371
▁interrog	-5372
▁vzw	-5373
▁Inter	-5374
▁avanc	-5375
aix	-5376
hof	-5377
cessit	-5378
▁datum	-5379
actions	-5380
▁autonom	-5381
▁telkens	-5382
?1.	-5383
auw	-5384
▁Nous	-5385
▁Klopt	-5386
merking	-5387
▁Compte	-5388
producten	-5389
▁Volksgezondheid	-5390
und	-5391
▁wacht	-5392
▁fermet	-5393
▁locaux	-5394
▁semaine	-5395
▁verslag	-5396
daad	-5397
▁auto	-5398
▁boek	-5399
proble	-5400
▁Proximus	-5401
▁resultaat	-5402
▁ingeschreven	-5403
Au	-5404
▁Ber	-5405
▁zin	-5406
▁rappel	-5407
ailleurs	-5408
▁garantie	-5409
▁overheden	-5410
▁automatique	-5411
orts	-5412
rais	-5413
vide	-5414
▁dra	-5415
vinci	-5416
voort	-5417
▁grat	-5418
ograph	-5419
▁banques	-5420
▁prestations	-5421
aks	-5422
usage	-5423
▁prob	-5424
▁licen	-5425
matisch	-5426
▁journal	-5427
▁surtout	-5428
IN	-5429
cise	-5430
▁end	-5431
partis	-5432
▁favor	-5433
▁diesel	-5434
anningen	-5435
▁prochaine	-5436
▁wijziging	-5437
poque	-5438
▁korte	-5439
▁poser	-5440
▁aspect	-5441
positions	-5442
▁verblijven	-5443
intervention	-5444
▁discussions	-5445
▁naam	-5446
▁patient	-5447
▁uiteind	-5448
oles	-5449
▁Bur	-5450
antal	-5451
▁Isra	-5452
▁kwam	-5453
▁prog	-5454
nitenti	-5455
▁succes	-5456
▁gevolgd	-5457
▁lezen	-5458
▁herzien	-5459
▁geslacht	-5460
maatschappij	-5461
Kan	-5462
wille	-5463
ovoort	-5464
▁erkende	-5465
▁fil	-5466
ement	-5467
idden	-5468
▁vaste	-5469
▁alsook	-5470
▁cijfer	-5471
▁procure	-5472
▁contacts	-5473
▁sterk	-5474
▁enzovoort	-5475
▁international	-5476
NAMI	-5477
otte	-5478
▁scre	-5479
inding	-5480
pension	-5481
▁motifs	-5482
▁contract	-5483
eerd	-5484
nous	-5485
effic	-5486
offen	-5487
▁visite	-5488
aliseerd	-5489
arts	-5490
wijzen	-5491
▁indic	-5492
▁betere	-5493
▁sollic	-5494
agements	-5495
enseignement	-5496
fonds	-5497
▁studi	-5498
▁overge	-5499
▁durable	-5500
▁verhoog	-5501
▁bijdrage	-5502
▁consument	-5503
verm	-5504
▁mobi	-5505
▁naast	-5506
▁vertu	-5507
IZIV	-5508
rarchie	-5509
▁avantages	-5510
▁relations	-5511
▁ontwikkelings	-5512
bb	-5513
kers	-5514
▁Vers	-5515
▁envoy	-5516
▁reten	-5517
▁Nederlandse	-5518
Une	-5519
▁rembours	-5520
▁werkzaam	-5521
▁opsplitsen	-5522
▁techniques	-5523
▁vastgelegd	-5524
▁Pe	-5525
quip	-5526
▁kmo	-5527
▁cartes	-5528
▁begeleid	-5529
▁rechtbank	-5530
▁concurrence	-5531
▁modifications	-5532
▁Se	-5533
▁Men	-5534
▁kaart	-5535
▁rapat	-5536
▁klanten	-5537
enregistrement	-5538
rust	-5539
▁outil	-5540
atoires	-5541
▁mannen	-5542
▁modern	-5543
▁certific	-5544
▁directement	-5545
▁tw	-5546
iaal	-5547
▁Eur	-5548
intes	-5549
serve	-5550
▁FAVV	-5551
▁hoge	-5552
conomies	-5553
▁accessi	-5554
▁consacr	-5555
uve	-5556
▁moest	-5557
▁antwoordde	-5558
▁90	-5559
erce	-5560
appel	-5561
▁ondertussen	-5562
▁travailleur	-5563
hy	-5564
mog	-5565
opie	-5566
▁bus	-5567
▁Werk	-5568
▁Tijdens	-5569
▁annuels	-5570
vie	-5571
tiek	-5572
▁traite	-5573
▁werkgevers	-5574
pp	-5575
▁sche	-5576
▁commiss	-5577
▁gebruikers	-5578
NP	-5579
▁45	-5580
▁hyp	-5581
▁Loter	-5582
▁labor	-5583
▁bericht	-5584
▁aangifte	-5585
▁vervoers	-5586
▁Veiligheid	-5587
▁belastingplich	-5588
angen	-5589
▁Hier	-5590
cialis	-5591
▁werkt	-5592
▁hoever	-5593
▁financiers	-5594
▁professionnelle	-5595
▁ir	-5596
lees	-5597
elsel	-5598
igheid	-5599
▁gehad	-5600
▁touch	-5601
▁logici	-5602
▁passen	-5603
oedingen	-5604
▁devraient	-5605
dele	-5606
wacht	-5607
▁smart	-5608
diation	-5609
instaur	-5610
▁tevens	-5611
Infrabel	-5612
▁Luxemburg	-5613
VZ	-5614
▁(�	-5615
voel	-5616
▁nale	-5617
ticles	-5618
verbaal	-5619
akkelijk	-5620
▁beschouwd	-5621
▁werknemer	-5622
▁bestuurders	-5623
EU	-5624
ity	-5625
▁genre	-5626
▁direct	-5627
▁informatique	-5628
aint	-5629
▁Leu	-5630
▁conclu	-5631
▁waarsch	-5632
▁diverses	-5633
instellingen	-5634
Unis	-5635
brief	-5636
▁vois	-5637
accompag	-5638
ruim	-5639
▁erkend	-5640
▁trajet	-5641
▁courrier	-5642
▁Gand	-5643
▁action	-5644
▁betekent	-5645
cs	-5646
▁Qui	-5647
osten	-5648
▁indique	-5649
intention	-5650
▁aanmerking	-5651
Si	-5652
.)?	-5653
Uit	-5654
bio	-5655
loop	-5656
▁vrouw	-5657
▁Hebben	-5658
▁fiscales	-5659
▁IS	-5660
mises	-5661
verslag	-5662
▁gebrek	-5663
▁klacht	-5664
▁nummer	-5665
▁gezondheid	-5666
interdiction	-5667
▁associ	-5668
▁beslag	-5669
ah	-5670
vinden	-5671
▁avons	-5672
▁puissent	-5673
▁suppression	-5674
dule	-5675
▁fau	-5676
▁zul	-5677
maakt	-5678
obile	-5679
trekken	-5680
▁bereid	-5681
▁komende	-5682
▁provinci	-5683
cente	-5684
bouwen	-5685
▁dial	-5686
▁balans	-5687
▁satisf	-5688
ologique	-5689
▁communaut	-5690
▁inspectie	-5691
▁doelstelling	-5692
cien	-5693
▁arrest	-5694
▁fiscal	-5695
▁pourra	-5696
▁globale	-5697
▁fonctions	-5698
▁documenten	-5699
geld	-5700
ijken	-5701
ister	-5702
▁kort	-5703
indemn	-5704
▁inqui	-5705
▁attentats	-5706
blad	-5707
cleaire	-5708
▁klimaat	-5709
▁premiers	-5710
▁financier	-5711
▁fab	-5712
▁biedt	-5713
▁faill	-5714
▁hommes	-5715
▁propre	-5716
▁verzekerings	-5717
ates	-5718
erve	-5719
venu	-5720
▁NAVO	-5721
amens	-5722
inaire	-5723
porter	-5724
▁douane	-5725
indingen	-5726
videmment	-5727
riels	-5728
▁kleine	-5729
▁correct	-5730
▁environ	-5731
▁vaststelling	-5732
?9.	-5733
ams	-5734
tik	-5735
▁bru	-5736
▁beperkt	-5737
gislature	-5738
▁vermelding	-5739
500	-5740
▁verd	-5741
▁uitoef	-5742
staligen	-5743
raal	-5744
▁groe	-5745
ressie	-5746
stances	-5747
▁onderte	-5748
▁transports	-5749
▁principales	-5750
duit	-5751
timez	-5752
▁stre	-5753
fraude	-5754
▁directeur	-5755
▁voordelen	-5756
);	-5757
▁tut	-5758
▁degr	-5759
▁ense	-5760
▁helpen	-5761
▁voudra	-5762
tification	-5763
zijn	-5764
▁bord	-5765
etboek	-5766
capacit	-5767
▁efficace	-5768
tect	-5769
▁Mon	-5770
code	-5771
aatst	-5772
markt	-5773
rationn	-5774
▁examin	-5775
▁plainte	-5776
▁Agentschap	-5777
einde	-5778
▁bure	-5779
▁geleid	-5780
gerust	-5781
▁bespre	-5782
kantoren	-5783
opdrachten	-5784
▁studenten	-5785
vit	-5786
▁em	-5787
▁want	-5788
▁pharm	-5789
▁physiques	-5790
oft	-5791
▁lour	-5792
▁zake	-5793
▁gespre	-5794
▁contexte	-5795
▁bovendien	-5796
▁datab	-5797
▁autant	-5798
▁faites	-5799
▁hoeverre	-5800
▁meldingen	-5801
▁formations	-5802
▁vergelijking	-5803
▁Gel	-5804
▁bevoegde	-5805
▁transfert	-5806
ho	-5807
aag	-5808
igt	-5809
pleeg	-5810
formes	-5811
▁opgest	-5812
▁travers	-5813
installation	-5814
park	-5815
alloc	-5816
▁gebouw	-5817
▁beperkte	-5818
21	-5819
ache	-5820
▁196	-5821
▁fen	-5822
rijving	-5823
▁verkrij	-5824
acy	-5825
nie	-5826
▁Et	-5827
hift	-5828
▁misd	-5829
▁sport	-5830
▁trouv	-5831
▁banken	-5832
▁voorlop	-5833
▁condition	-5834
▁participation	-5835
▁33	-5836
cipl	-5837
comit	-5838
▁gehe	-5839
▁paix	-5840
▁plein	-5841
ontwerp	-5842
▁aanget	-5843
▁beheers	-5844
▁verspre	-5845
▁Minister	-5846
overeenkomst	-5847
rip	-5848
▁forces	-5849
▁omwille	-5850
▁bevoegdheden	-5851
▁verduidelijk	-5852
zo	-5853
och	-5854
▁2018?	-5855
▁brief	-5856
gelegen	-5857
▁budgets	-5858
▁mention	-5859
cons	-5860
heer	-5861
▁197	-5862
▁Ben	-5863
diate	-5864
▁confi	-5865
spraken	-5866
▁auteurs	-5867
▁disposer	-5868
ep	-5869
alco	-5870
doende	-5871
▁audit	-5872
▁humains	-5873
wisseling	-5874
▁beslissingen	-5875
Cap	-5876
▁flamande	-5877
▁stijging	-5878
exploitation	-5879
▁stip	-5880
▁liggen	-5881
▁subsidi	-5882
oeu	-5883
plo	-5884
▁Luik	-5885
▁geko	-5886
▁veroord	-5887
▁Amerikaanse	-5888
▁uitbreiding	-5889
▁vari	-5890
▁prati	-5891
▁km	-5892
▁plac	-5893
▁baisse	-5894
▁mening	-5895
▁sommes	-5896
ventuelle	-5897
▁praktijken	-5898
TAN	-5899
ids	-5900
vrij	-5901
ermen	-5902
erecht	-5903
▁passer	-5904
▁familles	-5905
▁wen	-5906
▁clairement	-5907
once	-5908
onie	-5909
▁voire	-5910
▁appara	-5911
▁longue	-5912
▁Wetboek	-5913
▁verzoek	-5914
▁principalement	-5915
bestuur	-5916
▁daarom	-5917
contract	-5918
▁approuv	-5919
gaux	-5920
uurs	-5921
kingen	-5922
▁vorig	-5923
▁punten	-5924
heureusement	-5925
▁overtredingen	-5926
17	-5927
▁ouders	-5928
▁voorkom	-5929
efficacit	-5930
▁voorgesteld	-5931
90	-5932
nog	-5933
daan	-5934
▁2008	-5935
▁aanwerv	-5936
▁2010-201	-5937
▁uiteraard	-5938
▁suffisamment	-5939
urb	-5940
▁Alge	-5941
▁regr	-5942
sidence	-5943
▁voorbere	-5944
ongevallen	-5945
▁000	-5946
▁COM	-5947
▁keu	-5948
5.000	-5949
▁echt	-5950
▁actes	-5951
▁relig	-5952
▁bescherm	-5953
▁aangekondigd	-5954
lopen	-5955
▁langues	-5956
▁tutelle	-5957
▁voedsel	-5958
▁uitgebre	-5959
▁voertuig	-5960
organisatie	-5961
▁maatschapp	-5962
avez	-5963
ital	-5964
▁hos	-5965
assen	-5966
ingsplan	-5967
▁rechter	-5968
▁verkiez	-5969
▁fermeture	-5970
▁don	-5971
▁exclus	-5972
ploy	-5973
aster	-5974
▁kinder	-5975
▁consommateur	-5976
eller	-5977
▁arch	-5978
▁lien	-5979
▁patrim	-5980
▁tekort	-5981
▁Nations	-5982
▁waarover	-5983
▁structure	-5984
wagen	-5985
▁CRIV	-5986
▁aura	-5987
▁kwamen	-5988
▁handels	-5989
tabli	-5990
union	-5991
▁tard	-5992
▁groupes	-5993
▁migranten	-5994
.).	-5995
▁sh	-5996
▁chron	-5997
▁continu	-5998
accidents	-5999
▁production	-6000
▁gespe	-6001
▁bureaux	-6002
80	-6003
arit	-6004
▁Zult	-6005
bedrag	-6006
▁simil	-6007
▁weken	-6008
tudiants	-6009
▁studies	-6010
▁Protection	-6011
ijzen	-6012
accessi	-6013
▁suivre	-6014
▁fietsen	-6015
▁parents	-6016
▁vergadering	-6017
roeg	-6018
urant	-6019
▁punt	-6020
▁Trans	-6021
▁lopen	-6022
anciers	-6023
▁terrein	-6024
▁trekken	-6025
▁Gemeenschap	-6026
▁propositions	-6027
"?	-6028
mil	-6029
ihad	-6030
▁erop	-6031
▁tour	-6032
ditionn	-6033
▁comporte	-6034
bep	-6035
▁domm	-6036
▁perte	-6037
▁transit	-6038
▁Administr	-6039
▁samenwerkings	-6040
AC	-6041
erend	-6042
gezet	-6043
▁pakken	-6044
▁postes	-6045
▁quelque	-6046
▁soutenir	-6047
▁materieel	-6048
▁werkgever	-6049
worpen	-6050
▁Entre	-6051
ification	-6052
▁intussen	-6053
obligation	-6054
▁voorbeeld	-6055
▁administratives	-6056
loir	-6057
norm	-6058
ession	-6059
▁force	-6060
▁gebeurd	-6061
▁pourront	-6062
▁transmis	-6063
▁contraire	-6064
▁uiteindelijk	-6065
▁65	-6066
vest	-6067
▁ICT	-6068
velopp	-6069
▁libre	-6070
rons	-6071
cement	-6072
ccident	-6073
rijders	-6074
▁bezorgd	-6075
▁appareils	-6076
▁betrokkenen	-6077
▁hor	-6078
▁pon	-6079
argent	-6080
▁onvol	-6081
▁jamais	-6082
ht	-6083
ars	-6084
▁2018.	-6085
attaques	-6086
gle	-6087
▁?2.	-6088
▁Tot	-6089
usion	-6090
▁pilot	-6091
cheidene	-6092
▁bereiken	-6093
▁behandeld	-6094
▁permanente	-6095
▁situations	-6096
beek	-6097
rage	-6098
▁emb	-6099
▁pistes	-6100
▁recouv	-6101
vor	-6102
illets	-6103
▁retrait	-6104
▁marchand	-6105
▁voudrais	-6106
▁toestellen	-6107
Dat	-6108
baan	-6109
▁asse	-6110
politie	-6111
treding	-6112
▁pointe	-6113
▁termin	-6114
kten	-6115
jaren	-6116
▁Civi	-6117
▁Maar	-6118
▁ener	-6119
tendre	-6120
▁Reken	-6121
▁biens	-6122
▁parties	-6123
▁support	-6124
orisation	-6125
uitkering	-6126
▁vertraging	-6127
AP	-6128
graad	-6129
elling	-6130
vraagd	-6131
▁court	-6132
▁Ontwik	-6133
▁Civiele	-6134
▁modalit	-6135
▁smartph	-6136
▁traject	-6137
▁trouver	-6138
▁Mol	-6139
tivit	-6140
inaires	-6141
▁papier	-6142
geschikt	-6143
▁Federale	-6144
md	-6145
ives	-6146
ster	-6147
houds	-6148
▁usagers	-6149
▁semaines	-6150
▁omstandigheden	-6151
Om	-6152
stad	-6153
alais	-6154
▁partici	-6155
▁economie	-6156
▁platform	-6157
▁onderzoeks	-6158
boek	-6159
▁druk	-6160
employ	-6161
ficient	-6162
▁Leuven	-6163
▁gekomen	-6164
▁instaur	-6165
▁brandweer	-6166
▁tewerkgesteld	-6167
ods	-6168
▁Louv	-6169
▁adop	-6170
▁eerst	-6171
▁opdat	-6172
▁sluit	-6173
▁abus	-6174
▁vroeg	-6175
▁majorit	-6176
▁ernstige	-6177
▁grootste	-6178
log	-6179
▁6.	-6180
aume	-6181
quie	-6182
entie	-6183
tenant	-6184
solution	-6185
▁quitter	-6186
▁waaronder	-6187
atriculation	-6188
cijfers	-6189
▁chauff	-6190
▁besoins	-6191
▁associations	-6192
her	-6193
igar	-6194
▁tarief	-6195
▁mensenrechten	-6196
cti	-6197
▁kond	-6198
oriser	-6199
▁billets	-6200
▁difficile	-6201
lectroniques	-6202
uld	-6203
▁Onl	-6204
▁kunt	-6205
▁wall	-6206
alcool	-6207
▁corps	-6208
▁table	-6209
luiting	-6210
▁export	-6211
dur	-6212
OTAN	-6213
arme	-6214
▁vise	-6215
▁radio	-6216
▁zwaar	-6217
gelaten	-6218
▁registre	-6219
▁oplossingen	-6220
▁terroristes	-6221
▁rechtstreeks	-6222
chang	-6223
udget	-6224
▁liqu	-6225
▁conne	-6226
▁innov	-6227
▁popul	-6228
▁nouvel	-6229
▁qualif	-6230
▁zekerheid	-6231
▁aangegeven	-6232
▁desgevallen	-6233
▁linguistiques	-6234
▁overheidsdienst	-6235
▁quan	-6236
rielle	-6237
assurer	-6238
▁Contro	-6239
valueerd	-6240
▁articles	-6241
▁milliards	-6242
▁principaux	-6243
▁identiteits	-6244
24	-6245
▁55	-6246
▁Ste	-6247
▁stem	-6248
▁control	-6249
▁begrotings	-6250
▁middel	-6251
▁faisant	-6252
▁duurzame	-6253
▁Bescherming	-6254
dru	-6255
stra	-6256
▁nag	-6257
endie	-6258
tient	-6259
arbeid	-6260
▁gezet	-6261
verbaux	-6262
▁waarde	-6263
hankelijk	-6264
INAMI	-6265
journ	-6266
▁gera	-6267
▁ambul	-6268
▁visie	-6269
controles	-6270
▁teneinde	-6271
▁politiezone	-6272
▁veroordeeld	-6273
▁ferroviaires	-6274
▁tex	-6275
zocht	-6276
instru	-6277
▁Anvers	-6278
▁invest	-6279
▁allou	-6280
ichting	-6281
▁vliegt	-6282
ocontrol	-6283
▁constater	-6284
▁opgestart	-6285
▁tribunaux	-6286
▁changement	-6287
gies	-6288
▁taxe	-6289
▁Commiss	-6290
ankelijkheid	-6291
jud	-6292
heren	-6293
plaat	-6294
niveau	-6295
▁croiss	-6296
▁voiture	-6297
▁seksueel	-6298
▁verda	-6299
tension	-6300
▁Staten	-6301
▁Estimez	-6302
▁actieplan	-6303
dste	-6304
maak	-6305
pron	-6306
▁zet	-6307
▁zom	-6308
magne	-6309
▁domein	-6310
▁beperken	-6311
▁Duitsland	-6312
▁por	-6313
▁aansp	-6314
▁examen	-6315
▁onderhouds	-6316
apit	-6317
appl	-6318
erte	-6319
aarde	-6320
ningen	-6321
▁regul	-6322
ralement	-6323
lichtingen	-6324
▁rijbewijs	-6325
▁vervolgens	-6326
▁zelfstandige	-6327
▁ondersteuning	-6328
Int	-6329
oni	-6330
ood	-6331
voe	-6332
▁wens	-6333
nagement	-6334
▁concurren	-6335
▁sensibiliser	-6336
uten	-6337
adies	-6338
▁clubs	-6339
▁loopt	-6340
▁monit	-6341
▁verlopen	-6342
lectriques	-6343
▁obligations	-6344
kl	-6345
ifi	-6346
odi	-6347
▁guich	-6348
▁geconf	-6349
▁zeggen	-6350
▁president	-6351
bedrijf	-6352
▁Algemene	-6353
▁sollicit	-6354
▁desgevallend	-6355
▁nuit	-6356
▁Regie	-6357
▁natur	-6358
▁interp	-6359
▁voedings	-6360
23	-6361
▁ai	-6362
ijns	-6363
kets	-6364
▁kri	-6365
▁Irak	-6366
▁Rekenhof	-6367
kw	-6368
)?4.	-6369
▁denkt	-6370
lections	-6371
▁travaillent	-6372
▁verstrekken	-6373
▁toegankelijk	-6374
▁lou	-6375
▁quar	-6376
▁gezinnen	-6377
▁operatie	-6378
▁introduit	-6379
▁verklaard	-6380
Kunt	-6381
zing	-6382
noemde	-6383
▁genoeg	-6384
▁lijnen	-6385
outefois	-6386
▁environnement	-6387
EC	-6388
offre	-6389
omeen	-6390
▁cycl	-6391
▁mond	-6392
▁taalk	-6393
ataires	-6394
komstige	-6395
register	-6396
▁afgesloten	-6397
▁dispositif	-6398
accessibilit	-6399
elor	-6400
▁plut	-6401
eringen	-6402
▁cultur	-6403
ronteerd	-6404
▁voorgang	-6405
bijvoorbeeld	-6406
Wat	-6407
ume	-6408
affen	-6409
aimer	-6410
eters	-6411
▁burn	-6412
oorten	-6413
stallen	-6414
▁renouv	-6415
▁viande	-6416
▁retards	-6417
▁verboden	-6418
▁management	-6419
▁geconfronteerd	-6420
pectie	-6421
▁agric	-6422
▁signale	-6423
aliteiten	-6424
chets	-6425
gische	-6426
rische	-6427
▁plans	-6428
▁vouloir	-6429
▁Ban	-6430
▁huur	-6431
▁occas	-6432
▁verde	-6433
▁double	-6434
▁courant	-6435
▁gepleegd	-6436
▁opvolging	-6437
▁vervangen	-6438
▁automobile	-6439
2)	-6440
naam	-6441
▁300	-6442
▁exc	-6443
avoir	-6444
ressi	-6445
tirer	-6446
atting	-6447
▁besoin	-6448
▁dragen	-6449
paration	-6450
▁Face	-6451
▁chois	-6452
Ook	-6453
udule	-6454
ituatie	-6455
▁directie	-6456
▁fenomeen	-6457
imposition	-6458
▁organisation	-6459
sse	-6460
▁Zee	-6461
▁cou	-6462
duite	-6463
▁sexe	-6464
contre	-6465
lijnen	-6466
aimerais	-6467
▁bedoeld	-6468
▁efforts	-6469
▁toekenning	-6470
▁budgettaire	-6471
▁aanwezigheid	-6472
▁inspanningen	-6473
▁sor	-6474
atisch	-6475
etteurs	-6476
▁applic	-6477
▁daarover	-6478
▁Belgocontrol	-6479
▁minderjarigen	-6480
SZ	-6481
10.	-6482
lim	-6483
atte	-6484
nota	-6485
suit	-6486
▁idee	-6487
▁stim	-6488
▁Noord	-6489
▁vindt	-6490
oriteit	-6491
Capitale	-6492
▁explique	-6493
samenwerking	-6494
▁slag	-6495
▁malgr	-6496
▁meege	-6497
▁zware	-6498
▁chemins	-6499
▁puisque	-6500
▁Cyber	-6501
▁retra	-6502
tikelen	-6503
▁Royaume	-6504
▁terreur	-6505
▁psychiat	-6506
Des	-6507
▁Nord	-6508
▁inder	-6509
▁tardi	-6510
▁kennen	-6511
▁plupart	-6512
existence	-6513
▁beschermen	-6514
hors	-6515
tiers	-6516
▁dief	-6517
▁unit	-6518
estival	-6519
middels	-6520
▁agenda	-6521
▁emploi	-6522
▁pedele	-6523
▁verbod	-6524
▁bepalen	-6525
▁definitie	-6526
▁elektrische	-6527
uffis	-6528
▁ster	-6529
▁Secur	-6530
▁Votre	-6531
iceerde	-6532
industrie	-6533
▁apporter	-6534
▁overwegen	-6535
cifiquement	-6536
mocr	-6537
crites	-6538
▁verle	-6539
▁Staats	-6540
▁unique	-6541
lioration	-6542
haald	-6543
▁extr	-6544
▁waarb	-6545
▁verhouding	-6546
▁transparence	-6547
/1	-6548
utes	-6549
▁civil	-6550
▁haven	-6551
▁inzet	-6552
avocats	-6553
▁missie	-6554
▁ontwerp	-6555
▁semblerait	-6556
voi	-6557
itte	-6558
▁uti	-6559
▁school	-6560
▁invalid	-6561
▁destination	-6562
▁opleidingen	-6563
agi	-6564
▁Mais	-6565
lectric	-6566
mogelijk	-6567
▁hauteur	-6568
▁product	-6569
▁kondigde	-6570
▁occasion	-6571
ER	-6572
fe	-6573
aas	-6574
gew	-6575
fini	-6576
▁dir	-6577
dossi	-6578
▁compagn	-6579
ventuelles	-6580
▁nucleaire	-6581
▁infraction	-6582
▁onderzocht	-6583
cro	-6584
▁ext	-6585
▁bele	-6586
cteerd	-6587
ophone	-6588
▁phase	-6589
▁accueill	-6590
▁suivants	-6591
Vlaanderen	-6592
▁attention	-6593
▁processen	-6594
agent	-6595
spection	-6596
▁Limburg	-6597
▁conseil	-6598
▁oversch	-6599
AR	-6600
▁occup	-6601
▁suites	-6602
▁domaines	-6603
▁voordeel	-6604
▁ventilant	-6605
▁onderscheid	-6606
adop	-6607
esse	-6608
▁dol	-6609
▁hem	-6610
▁limiter	-6611
▁dergelijk	-6612
▁operationeel	-6613
▁particuliers	-6614
▁uitgesproken	-6615
▁75	-6616
▁Gro	-6617
▁speed	-6618
▁Turquie	-6619
wetgeving	-6620
▁maladies	-6621
▁effectuer	-6622
▁cybercrimin	-6623
CC	-6624
▁Gu	-6625
umul	-6626
iteur	-6627
verbod	-6628
▁2017.1.	-6629
▁Internet	-6630
▁fraudule	-6631
▁gerechts	-6632
Alle	-6633
appar	-6634
▁second	-6635
ertuigen	-6636
▁Turkije	-6637
▁remplac	-6638
▁voisins	-6639
▁illegaal	-6640
▁campagnes	-6641
▁gezondheidszorg	-6642
faut	-6643
volg	-6644
▁Cet	-6645
merkt	-6646
compte	-6647
rifier	-6648
▁stipule	-6649
▁activiteit	-6650
environnement	-6651
▁renforcement	-6652
inn	-6653
xit	-6654
▁Am	-6655
▁arm	-6656
boden	-6657
▁occasionn	-6658
.,	-6659
oto	-6660
hode	-6661
onor	-6662
▁los	-6663
▁vont	-6664
ologiques	-6665
▁Overweegt	-6666
▁screening	-6667
breng	-6668
▁Afin	-6669
▁chef	-6670
▁ogen	-6671
rag	-6672
coul	-6673
▁diab	-6674
▁lois	-6675
▁water	-6676
▁gratis	-6677
▁indire	-6678
lectricit	-6679
▁versterk	-6680
▁gespecial	-6681
▁aanpassingen	-6682
mant	-6683
attente	-6684
▁gevoel	-6685
velopper	-6686
▁gericht	-6687
▁quantit	-6688
▁Communaut	-6689
EM	-6690
akel	-6691
pour	-6692
▁Zij	-6693
▁poursuit	-6694
▁verhogen	-6695
▁vermijden	-6696
ring	-6697
▁viv	-6698
anche	-6699
viden	-6700
▁spor	-6701
ambten	-6702
laboration	-6703
▁responsable	-6704
▁francophones	-6705
▁ambt	-6706
neming	-6707
olutie	-6708
▁mener	-6709
vestigt	-6710
▁agenten	-6711
▁onderworpen	-6712
immatriculation	-6713
▁Beg	-6714
▁merk	-6715
▁trim	-6716
▁mondiale	-6717
introduction	-6718
▁toekomstige	-6719
SP	-6720
ycl	-6721
ulte	-6722
ekend	-6723
▁mobiele	-6724
▁physique	-6725
▁verscheidene	-6726
▁oors	-6727
▁allez	-6728
▁concl	-6729
▁large	-6730
▁petit	-6731
ologies	-6732
▁charges	-6733
▁houdende	-6734
▁parkings	-6735
Inspection	-6736
▁aanvullen	-6737
▁ministers	-6738
▁werkgroep	-6739
▁aangeboden	-6740
urer	-6741
vorm	-6742
Graag	-6743
digde	-6744
▁invl	-6745
▁stap	-6746
euille	-6747
geleverd	-6748
estemming	-6749
ganisation	-6750
placements	-6751
▁inderdaad	-6752
▁Mob	-6753
▁bles	-6754
▁denk	-6755
entals	-6756
▁Selor	-6757
▁laste	-6758
artikel	-6759
▁perform	-6760
▁pouvons	-6761
▁migratie	-6762
▁Luxembourg	-6763
▁uitgebreid	-6764
uerre	-6765
▁douan	-6766
▁tirez	-6767
▁actoren	-6768
▁aanpassing	-6769
augmentation	-6770
200	-6771
oons	-6772
▁voorop	-6773
▁verplichte	-6774
bri	-6775
▁Wer	-6776
icier	-6777
useum	-6778
▁pomp	-6779
effect	-6780
▁occident	-6781
▁verloopt	-6782
AB	-6783
ppen	-6784
▁For	-6785
▁red	-6786
▁mauv	-6787
▁absol	-6788
▁assez	-6789
▁inves	-6790
▁motiv	-6791
▁zulke	-6792
gebieden	-6793
▁drogues	-6794
▁invloed	-6795
audi	-6796
mise	-6797
▁2006	-6798
tieken	-6799
▁dollar	-6800
▁spelen	-6801
▁Bestaat	-6802
▁suivant	-6803
▁intervention	-6804
nd	-6805
kre	-6806
nal	-6807
▁(1	-6808
▁neu	-6809
outes	-6810
▁vaker	-6811
▁inclus	-6812
▁Airport	-6813
▁controleren	-6814
▁wetsontwerp	-6815
EG	-6816
-20	-6817
duur	-6818
▁bar	-6819
▁urg	-6820
▁seule	-6821
▁dehors	-6822
entretien	-6823
▁Certains	-6824
▁consiste	-6825
▁recevoir	-6826
▁verander	-6827
Bij	-6828
▁34	-6829
▁ait	-6830
▁gun	-6831
▁pensions	-6832
▁programm	-6833
▁werkloosheids	-6834
▁infrastructures	-6835
lin	-6836
rable	-6837
ancien	-6838
▁global	-6839
aanvallen	-6840
▁contribution	-6841
▁distributeurs	-6842
ugd	-6843
▁gaz	-6844
▁var	-6845
etbal	-6846
rables	-6847
▁armes	-6848
▁donne	-6849
▁explic	-6850
nemingen	-6851
▁private	-6852
▁promotion	-6853
.".	-6854
GRA	-6855
▁param	-6856
▁krediet	-6857
▁geworden	-6858
▁websites	-6859
▁Convention	-6860
erlandophones	-6861
job	-6862
kra	-6863
mede	-6864
nerg	-6865
oekt	-6866
▁plaf	-6867
aliste	-6868
▁homolog	-6869
▁Gebouwen	-6870
▁uitgesplitst	-6871
fa	-6872
armes	-6873
effec	-6874
lever	-6875
pense	-6876
ofdste	-6877
wongen	-6878
▁classi	-6879
▁geweig	-6880
▁recens	-6881
▁passages	-6882
▁begroting	-6883
▁institution	-6884
agnos	-6885
▁jeux	-6886
opende	-6887
valuer	-6888
▁offre	-6889
rieures	-6890
▁comptab	-6891
▁tendance	-6892
▁productie	-6893
▁constituent	-6894
▁inlichtingen	-6895
?1	-6896
gend	-6897
▁Lib	-6898
▁haut	-6899
▁laattij	-6900
▁diplomatie	-6901
AST	-6902
wege	-6903
▁Conc	-6904
dentes	-6905
▁vertr	-6906
▁woning	-6907
▁citoyen	-6908
occupation	-6909
▁onderneming	-6910
▁proefproject	-6911
▁jonge	-6912
elketen	-6913
kaarten	-6914
sentant	-6915
▁familie	-6916
▁overweegt	-6917
▁antwoorden	-6918
enschappelijk	-6919
▁coordination	-6920
▁AS	-6921
▁opst	-6922
aarden	-6923
finiti	-6924
▁moiti	-6925
▁cabinets	-6926
▁voornoemde	-6927
▁wijzigingen	-6928
tieel	-6929
igratie	-6930
verklar	-6931
▁gebied	-6932
▁preuve	-6933
▁bestuurder	-6934
ogue	-6935
pati	-6936
▁Wet	-6937
▁deme	-6938
▁liaison	-6939
▁mandaat	-6940
▁respecter	-6941
▁verminderen	-6942
);-	-6943
▁Contr	-6944
▁boete	-6945
ression	-6946
rationnel	-6947
▁genieten	-6948
▁iedereen	-6949
▁effectifs	-6950
▁inwerking	-6951
▁verkrijgen	-6952
GVS	-6953
▁winst	-6954
▁composition	-6955
urt	-6956
▁Somm	-6957
▁succ	-6958
examen	-6959
rences	-6960
▁venir	-6961
▁hetzelfde	-6962
▁incidents	-6963
▁finalement	-6964
96	-6965
ry	-6966
nale	-6967
thode	-6968
▁rapports	-6969
▁verdeling	-6970
▁gemeenschap	-6971
▁cra	-6972
▁fys	-6973
▁Congo	-6974
▁elkaar	-6975
▁graves	-6976
▁troisi	-6977
▁bekomen	-6978
▁impossi	-6979
▁automatisch	-6980
▁tol	-6981
arten	-6982
crits	-6983
voyez	-6984
▁Waalse	-6985
▁benoem	-6986
▁2015?2.	-6987
▁daartoe	-6988
▁netwerk	-6989
▁pouvant	-6990
▁inmiddels	-6991
▁scientifique	-6992
▁moeilijkheden	-6993
▁twe	-6994
▁garde	-6995
▁ordre	-6996
uwelijk	-6997
▁royale	-6998
▁verkocht	-6999
▁geplaatst	-7000
▁forc	-7001
ntegre	-7002
rieven	-7003
▁bless	-7004
▁verdw	-7005
▁zeven	-7006
autorit	-7007
ctualit	-7008
fondsen	-7009
▁bewust	-7010
▁interventions	-7011
22	-7012
70	-7013
▁prim	-7014
▁simp	-7015
▁connu	-7016
▁libert	-7017
▁contacten	-7018
▁anderzijds	-7019
vant	-7020
▁onro	-7021
▁Saint	-7022
▁bestuurs	-7023
▁beperking	-7024
▁onderwijs	-7025
bit	-7026
ieur	-7027
zone	-7028
▁kam	-7029
▁Test	-7030
▁opsp	-7031
▁pied	-7032
▁1.000	-7033
▁Unies	-7034
▁report	-7035
terminer	-7036
▁certaine	-7037
▁verklaart	-7038
▁permettent	-7039
▁nauw	-7040
tiging	-7041
▁zorgt	-7042
enfants	-7043
▁cybers	-7044
▁profit	-7045
▁gewezen	-7046
▁identifi	-7047
▁natuurlijk	-7048
▁richtlijnen	-7049
arde	-7050
▁150	-7051
zaakt	-7052
▁foot	-7053
▁pilote	-7054
zendbrief	-7055
▁inwoners	-7056
▁monitoring	-7057
▁voorkomend	-7058
organisaties	-7059
▁volontaires	-7060
kte	-7061
ball	-7062
doet	-7063
ament	-7064
▁Stra	-7065
▁obst	-7066
▁uitb	-7067
ovatie	-7068
▁RIZIV	-7069
▁nooit	-7070
▁legisl	-7071
▁conflic	-7072
▁2017-201	-7073
▁favorable	-7074
▁instanties	-7075
▁sen	-7076
istan	-7077
▁inhoud	-7078
▁sturen	-7079
▁verlof	-7080
▁operationele	-7081
▁utilisateurs	-7082
gu	-7083
▁Di	-7084
▁fili	-7085
▁Frans	-7086
▁wagens	-7087
▁lopende	-7088
▁mobilis	-7089
▁waarschuw	-7090
▁onmiddellijk	-7091
book	-7092
▁Bet	-7093
▁faux	-7094
▁iets	-7095
▁sele	-7096
tijden	-7097
▁simpl	-7098
▁uitst	-7099
▁figure	-7100
▁prolong	-7101
▁sensibilisation	-7102
▁vennootschappen	-7103
lof	-7104
meu	-7105
arief	-7106
grond	-7107
houdt	-7108
▁Doel	-7109
▁roul	-7110
▁suit	-7111
ulling	-7112
▁affirm	-7113
▁bereikt	-7114
▁belangen	-7115
▁beleidsnota	-7116
▁bestrijding	-7117
▁envisageable	-7118
wap	-7119
cepti	-7120
enant	-7121
▁arts	-7122
▁2013.	-7123
▁afger	-7124
▁simple	-7125
encontre	-7126
▁afgesch	-7127
▁facture	-7128
▁Hoofdste	-7129
▁regroupe	-7130
▁voornaam	-7131
BI	-7132
undi	-7133
zegd	-7134
▁cru	-7135
armon	-7136
plant	-7137
zones	-7138
rabant	-7139
▁bewakings	-7140
▁garanties	-7141
▁disponible	-7142
▁ponctualit	-7143
▁prochaines	-7144
▁temporaire	-7145
▁Economische	-7146
.5.	-7147
▁tek	-7148
mement	-7149
▁afval	-7150
▁vormt	-7151
▁drogue	-7152
▁devront	-7153
▁sources	-7154
▁meegedeeld	-7155
ples	-7156
ziek	-7157
ielen	-7158
▁2005	-7159
▁mess	-7160
▁front	-7161
▁later	-7162
▁usage	-7163
vestigd	-7164
▁Artikel	-7165
▁arbeidson	-7166
▁discriminatie	-7167
▁4,	-7168
aans	-7169
riens	-7170
taill	-7171
▁paie	-7172
▁keuze	-7173
cidents	-7174
▁arrive	-7175
▁waaraan	-7176
estations	-7177
uim	-7178
▁DG	-7179
rateur	-7180
▁vision	-7181
▁leeftijds	-7182
oeden	-7183
koming	-7184
▁kwart	-7185
▁vreem	-7186
▁context	-7187
assistance	-7188
▁responsables	-7189
ails	-7190
sver	-7191
▁zei	-7192
▁geop	-7193
▁eisen	-7194
eningen	-7195
▁antibio	-7196
▁gardien	-7197
▁dommages	-7198
▁logiciel	-7199
vergunning	-7200
▁verklaring	-7201
▁verordening	-7202
▁Ma	-7203
ayer	-7204
stof	-7205
▁caus	-7206
▁entend	-7207
▁iemand	-7208
▁regard	-7209
▁vervang	-7210
▁maximale	-7211
▁verricht	-7212
▁geweigerd	-7213
▁navetteurs	-7214
▁verwachten	-7215
▁koninklijke	-7216
▁legislatuur	-7217
▁persoonlijke	-7218
sor	-7219
trein	-7220
▁nadat	-7221
▁camera	-7222
▁gewerkt	-7223
instauration	-7224
oos	-7225
▁Tax	-7226
mping	-7227
▁actu	-7228
▁wilt	-7229
▁dangere	-7230
▁suspect	-7231
▁betrokkene	-7232
▁verzekeren	-7233
▁betrekkingen	-7234
Als	-7235
bile	-7236
riften	-7237
cesseur	-7238
▁inkomen	-7239
▁gebeurde	-7240
aden	-7241
meurs	-7242
▁(201	-7243
vester	-7244
erschap	-7245
▁actifs	-7246
▁2016?2.	-7247
▁niveaux	-7248
▁reactie	-7249
▁proposer	-7250
▁onderhoud	-7251
▁resolutie	-7252
luchtelingen	-7253
▁bruxelloise	-7254
▁distribution	-7255
communications	-7256
▁ul	-7257
raagde	-7258
usland	-7259
▁client	-7260
▁danger	-7261
▁conserv	-7262
sentation	-7263
▁criminalit	-7264
▁registratie	-7265
infrastructure	-7266
TC	-7267
anim	-7268
▁stipt	-7269
▁valid	-7270
ochtans	-7271
▁mobile	-7272
▁politi	-7273
▁vracht	-7274
begeleid	-7275
keningen	-7276
▁Louvain	-7277
▁contenu	-7278
▁logement	-7279
▁automobil	-7280
▁verplichting	-7281
▁Apr	-7282
▁gelet	-7283
▁stimul	-7284
▁tarifs	-7285
viennent	-7286
attention	-7287
▁partijen	-7288
▁negatieve	-7289
▁vakbonden	-7290
▁concurrentie	-7291
ive	-7292
berg	-7293
▁Sint	-7294
▁abou	-7295
▁wachten	-7296
▁aanbieden	-7297
▁directives	-7298
▁employeurs	-7299
SMA	-7300
vat	-7301
▁Chine	-7302
nelijke	-7303
▁cancer	-7304
▁infirm	-7305
▁subsid	-7306
▁wapens	-7307
quisition	-7308
▁Herentals	-7309
web	-7310
nage	-7311
▁Hij	-7312
astro	-7313
laagd	-7314
Depuis	-7315
▁optre	-7316
▁solid	-7317
ystemen	-7318
▁invent	-7319
▁verzorg	-7320
▁geplande	-7321
▁hulpverlen	-7322
▁begeleiding	-7323
▁ondersteunen	-7324
▁werkzaamheden	-7325
oud	-7326
▁Co	-7327
▁exac	-7328
agents	-7329
atures	-7330
dracht	-7331
▁Afrik	-7332
▁alles	-7333
ows	-7334
woor	-7335
▁Grie	-7336
▁bezit	-7337
▁gevolge	-7338
▁avantage	-7339
▁positief	-7340
▁enerzijds	-7341
▁positieve	-7342
▁subsidiaire	-7343
1)	-7344
vres	-7345
▁amp	-7346
▁gas	-7347
halve	-7348
weging	-7349
▁Banque	-7350
▁trouve	-7351
▁bedroeg	-7352
▁accident	-7353
▁minderjarige	-7354
cho	-7355
▁Gez	-7356
▁liet	-7357
▁halen	-7358
omtrent	-7359
categorie	-7360
▁constate	-7361
▁conducteur	-7362
agr	-7363
tap	-7364
▁%,	-7365
nonc	-7366
▁nab	-7367
aises	-7368
inten	-7369
paste	-7370
ctieve	-7371
▁accept	-7372
▁bijstand	-7373
▁richting	-7374
▁Ministerraad	-7375
▁Hoofdstedelijk	-7376
cu	-7377
oest	-7378
▁plant	-7379
demment	-7380
▁vaccin	-7381
▁internationales	-7382
▁Nu	-7383
ancy	-7384
▁tir	-7385
inche	-7386
▁neut	-7387
keerde	-7388
▁klein	-7389
arisation	-7390
obiliteit	-7391
▁Overheids	-7392
▁ambassade	-7393
▁longtemps	-7394
▁verwijder	-7395
het	-7396
▁IT	-7397
▁dim	-7398
▁Comp	-7399
▁cibl	-7400
▁wapen	-7401
contracten	-7402
▁besproken	-7403
▁hieromtrent	-7404
-16	-7405
mod	-7406
▁rad	-7407
▁lire	-7408
▁klant	-7409
pendent	-7410
▁woorden	-7411
▁loopbaan	-7412
▁misbruik	-7413
▁continuer	-7414
▁garanderen	-7415
▁impossible	-7416
▁inspecteurs	-7417
CR	-7418
cy	-7419
▁44	-7420
dant	-7421
▁mode	-7422
inkels	-7423
▁kiezen	-7424
▁protocol	-7425
▁schulden	-7426
▁kandidaten	-7427
IM	-7428
hen	-7429
▁fou	-7430
ermijn	-7431
▁class	-7432
▁somme	-7433
▁collec	-7434
▁titres	-7435
▁command	-7436
▁emplois	-7437
▁samenle	-7438
instituut	-7439
▁Facebook	-7440
gelegenheid	-7441
▁onvoldoende	-7442
▁organiseren	-7443
DE	-7444
mbuds	-7445
▁retr	-7446
alings	-7447
iseren	-7448
▁bedre	-7449
gements	-7450
▁veiller	-7451
▁bepaling	-7452
▁blijkbaar	-7453
▁fortement	-7454
▁distinction	-7455
▁publication	-7456
▁verplichtingen	-7457
▁mu	-7458
▁Aut	-7459
gevend	-7460
▁beeld	-7461
houders	-7462
▁publicit	-7463
▁uitkering	-7464
▁operatoren	-7465
26	-7466
▁Du	-7467
dicales	-7468
▁moesten	-7469
▁festival	-7470
▁souhaitent	-7471
▁versterken	-7472
oont	-7473
▁ngo	-7474
wijze	-7475
▁Zuid	-7476
▁enti	-7477
rontex	-7478
▁motor	-7479
▁Wereld	-7480
▁eenvou	-7481
▁exprim	-7482
▁peines	-7483
▁afwezig	-7484
▁afgerond	-7485
▁Daarnaast	-7486
▁renovatie	-7487
▁tijdelijk	-7488
▁Car	-7489
endez	-7490
▁hors	-7491
▁Chaque	-7492
affaires	-7493
rdinatie	-7494
▁restent	-7495
▁aanbeste	-7496
▁remplacement	-7497
▁signalements	-7498
▁vergoedingen	-7499
▁verkiezingen	-7500
▁vrijstelling	-7501
due	-7502
uters	-7503
gebouw	-7504
uleerd	-7505
gekomen	-7506
kantoor	-7507
vervoer	-7508
▁indust	-7509
▁Onlangs	-7510
▁agressie	-7511
▁fournisse	-7512
Ch	-7513
kru	-7514
uls	-7515
view	-7516
avent	-7517
▁sour	-7518
▁combat	-7519
▁organes	-7520
▁43	-7521
flex	-7522
▁taak	-7523
▁quais	-7524
▁tient	-7525
amendes	-7526
igences	-7527
campagne	-7528
▁nationaal	-7529
▁wagenpark	-7530
▁omzendbrief	-7531
▁internationaal	-7532
ild	-7533
▁My	-7534
zeker	-7535
▁Oost	-7536
▁daad	-7537
▁sept	-7538
▁overw	-7539
▁Comptez	-7540
▁salaire	-7541
▁victime	-7542
placement	-7543
▁constitution	-7544
Met	-7545
Lors	-7546
▁Zelf	-7547
▁rede	-7548
▁endro	-7549
▁stock	-7550
atieven	-7551
▁daarop	-7552
▁fiscaal	-7553
▁gedeelt	-7554
onderzoek	-7555
▁Nederlands	-7556
▁forfaitaire	-7557
ores	-7558
ukken	-7559
eenste	-7560
enfant	-7561
▁China	-7562
▁domic	-7563
▁titul	-7564
▁amende	-7565
▁assure	-7566
▁conseils	-7567
▁geregeld	-7568
▁voortaan	-7569
▁interpell	-7570
alle	-7571
straf	-7572
▁maal	-7573
kelijk	-7574
▁State	-7575
problemen	-7576
▁overgang	-7577
▁pompiers	-7578
voertuigen	-7579
▁gelijkaar	-7580
37	-7581
ario	-7582
exem	-7583
oine	-7584
habit	-7585
patri	-7586
▁Wind	-7587
▁sang	-7588
chtans	-7589
matige	-7590
tablis	-7591
vident	-7592
▁Paris	-7593
▁kwets	-7594
▁stric	-7595
▁klasse	-7596
gevonden	-7597
▁gemeent	-7598
▁bevinden	-7599
▁nochtans	-7600
▁centrales	-7601
▁illegalen	-7602
▁overeenste	-7603
bou	-7604
▁Ac	-7605
▁gsm	-7606
cents	-7607
▁muni	-7608
issons	-7609
▁arriv	-7610
ventuels	-7611
aliseerde	-7612
▁insuffis	-7613
▁vrijwillige	-7614
yl	-7615
atr	-7616
cal	-7617
tigd	-7618
crire	-7619
drait	-7620
▁abord	-7621
▁nader	-7622
▁ratif	-7623
attants	-7624
canisme	-7625
richten	-7626
▁causes	-7627
▁Arbeids	-7628
▁dumping	-7629
▁toename	-7630
▁instances	-7631
▁capaciteit	-7632
rom	-7633
▁36	-7634
Naar	-7635
mail	-7636
▁fins	-7637
▁laag	-7638
▁onaf	-7639
▁soul	-7640
▁ving	-7641
vertis	-7642
▁2017?2.	-7643
▁Mobilit	-7644
▁affaires	-7645
▁contribuables	-7646
gne	-7647
usqu	-7648
▁Ass	-7649
▁dank	-7650
▁peti	-7651
▁vend	-7652
vingen	-7653
▁langs	-7654
▁zover	-7655
▁vraagt	-7656
12	-7657
▁58	-7658
▁BE	-7659
ample	-7660
malige	-7661
▁thans	-7662
onsieur	-7663
▁convient	-7664
▁maintien	-7665
▁rencontr	-7666
▁Inspectie	-7667
▁ressources	-7668
▁kunst	-7669
▁panne	-7670
▁trouw	-7671
▁autour	-7672
aanvraag	-7673
omenteel	-7674
▁voetbal	-7675
▁elektric	-7676
▁opportun	-7677
▁signifie	-7678
▁favoriser	-7679
▁integratie	-7680
▁poursuites	-7681
▁tijdelijke	-7682
▁statistieken	-7683
anger	-7684
apter	-7685
coles	-7686
▁hist	-7687
asselt	-7688
proces	-7689
ampleur	-7690
▁verlies	-7691
▁attaques	-7692
▁abonnement	-7693
▁systematisch	-7694
▁vermindering	-7695
ld	-7696
▁i	-7697
▁bou	-7698
seurs	-7699
volue	-7700
bureau	-7701
▁bewijs	-7702
▁oproep	-7703
▁treden	-7704
▁ontving	-7705
▁perrons	-7706
bescherming	-7707
▁allocation	-7708
▁importants	-7709
▁malheureusement	-7710
He	-7711
mbl	-7712
ops	-7713
▁fre	-7714
iceren	-7715
▁laiss	-7716
▁virus	-7717
▁crisis	-7718
commerce	-7719
▁Windows	-7720
▁leveren	-7721
▁verkeer	-7722
frastruct	-7723
▁2012-201	-7724
▁utiliser	-7725
▁verdeeld	-7726
matiquement	-7727
▁terugbetaald	-7728
▁Rail	-7729
▁Schen	-7730
▁expos	-7731
▁niets	-7732
▁reeks	-7733
▁politiek	-7734
▁gewestelijke	-7735
▁wed	-7736
▁Eind	-7737
▁gang	-7738
keuring	-7739
▁reizen	-7740
ignements	-7741
▁atteindre	-7742
▁instantie	-7743
▁regularis	-7744
▁buurlanden	-7745
▁occidentale	-7746
▁permettrait	-7747
dex	-7748
▁Ph	-7749
▁Vi	-7750
▁erv	-7751
ariaat	-7752
ernant	-7753
▁champ	-7754
▁micro	-7755
▁vrije	-7756
▁circon	-7757
▁intell	-7758
▁Rusland	-7759
▁behoren	-7760
incidence	-7761
▁gevonden	-7762
▁maximaal	-7763
▁aangenomen	-7764
▁engagement	-7765
54	-7766
cieze	-7767
isering	-7768
luchten	-7769
oversch	-7770
▁grands	-7771
▁porter	-7772
▁verlenen	-7773
▁budgetten	-7774
▁meilleure	-7775
▁exactement	-7776
38	-7777
omo	-7778
oss	-7779
sur	-7780
eenvou	-7781
passen	-7782
▁motif	-7783
▁zomer	-7784
genoten	-7785
▁doorge	-7786
▁rester	-7787
▁verzam	-7788
namelijk	-7789
▁Gelieve	-7790
▁propres	-7791
diatement	-7792
formation	-7793
ploiement	-7794
▁afkomstig	-7795
▁regerings	-7796
▁vergunning	-7797
▁voorlopige	-7798
nur	-7799
▁mou	-7800
capit	-7801
mploi	-7802
luiten	-7803
▁guerre	-7804
▁diagnos	-7805
▁pilotes	-7806
▁berichten	-7807
▁croissance	-7808
▁perception	-7809
aj	-7810
▁:	-7811
sou	-7812
▁Sou	-7813
wekken	-7814
▁piste	-7815
leveren	-7816
▁liquid	-7817
▁precieze	-7818
importance	-7819
▁gevestigd	-7820
▁obligation	-7821
▁rechtbanken	-7822
accompagnement	-7823
▁International	-7824
fect	-7825
▁ouv	-7826
▁noch	-7827
▁plas	-7828
▁stil	-7829
wijzigd	-7830
▁gedwongen	-7831
▁implement	-7832
▁situaties	-7833
▁bestrijden	-7834
▁Franstalige	-7835
▁samenleving	-7836
aand	-7837
uves	-7838
quili	-7839
▁appels	-7840
indiquer	-7841
missions	-7842
▁aandoen	-7843
▁sneller	-7844
▁besturen	-7845
▁signific	-7846
▁fondament	-7847
▁procureur	-7848
▁syndicats	-7849
▁2017-2018,	-7850
▁binnenkort	-7851
Organisation	-7852
▁belastingen	-7853
▁engagements	-7854
▁verbetering	-7855
▁CIR	-7856
▁erf	-7857
irurg	-7858
iennes	-7859
invalid	-7860
▁Russie	-7861
▁kanker	-7862
▁computers	-7863
▁uitgerust	-7864
▁dispositifs	-7865
28	-7866
;4.	-7867
dij	-7868
▁Afg	-7869
▁Brit	-7870
▁Waals	-7871
▁franch	-7872
▁Eu	-7873
▁gre	-7874
adapt	-7875
▁exon	-7876
▁rien	-7877
▁incom	-7878
aterale	-7879
▁gemeld	-7880
▁gender	-7881
▁functies	-7882
PA	-7883
elux	-7884
ends	-7885
dessus	-7886
rijpen	-7887
▁opges	-7888
▁seuls	-7889
▁visum	-7890
aventem	-7891
▁indienen	-7892
▁rapatrie	-7893
pakt	-7894
pren	-7895
ptie	-7896
orten	-7897
▁loin	-7898
▁soft	-7899
▁onderwerp	-7900
autorisation	-7901
▁transparantie	-7902
31	-7903
grer	-7904
▁Pri	-7905
▁aider	-7906
▁secon	-7907
▁vonden	-7908
▁Frontex	-7909
▁formule	-7910
initiative	-7911
▁artikelen	-7912
veld	-7913
▁win	-7914
▁2003	-7915
▁Marok	-7916
▁National	-7917
▁approche	-7918
▁aanvallen	-7919
▁voorzitter	-7920
▁burgerlijke	-7921
▁toestemming	-7922
euw	-7923
aalt	-7924
clam	-7925
ernes	-7926
ublin	-7927
elinge	-7928
▁bloot	-7929
▁faite	-7930
▁plaat	-7931
▁aanleg	-7932
angezien	-7933
▁ambitie	-7934
▁gehante	-7935
▁gestegen	-7936
▁Bevestigt	-7937
▁vereenvou	-7938
▁elektronisch	-7939
▁prochainement	-7940
75	-7941
OE	-7942
▁Sud	-7943
▁WIB	-7944
amera	-7945
venus	-7946
chelle	-7947
istent	-7948
▁overl	-7949
gelegde	-7950
▁apothe	-7951
▁devoir	-7952
▁medisch	-7953
▁radioac	-7954
▁football	-7955
▁oproepen	-7956
▁marchandises	-7957
▁tur	-7958
▁2002	-7959
▁recl	-7960
▁scol	-7961
chappen	-7962
▁chiens	-7963
▁daarmee	-7964
▁plafond	-7965
▁strategie	-7966
15	-7967
assa	-7968
▁halal	-7969
▁behoef	-7970
ressions	-7971
▁gelegen	-7972
▁coordonn	-7973
▁databank	-7974
▁ingesteld	-7975
▁Mobiliteit	-7976
edt	-7977
wijk	-7978
lozen	-7979
brugge	-7980
ulteurs	-7981
▁orient	-7982
invalidit	-7983
strijders	-7984
▁regionale	-7985
▁volontaire	-7986
18	-7987
▁1992	-7988
▁vient	-7989
▁hervorm	-7990
▁diminuer	-7991
▁familial	-7992
partementale	-7993
34	-7994
dert	-7995
stes	-7996
annab	-7997
ikking	-7998
▁Grond	-7999
statuut	-8000
▁besteed	-8001
▁verwezen	-8002
▁recouvrement	-8003
▁voedselketen	-8004
eau	-8005
verh	-8006
tieke	-8007
▁couv	-8008
espace	-8009
▁delen	-8010
▁Parijs	-8011
▁perspe	-8012
▁teneur	-8013
▁grotere	-8014
▁renforc	-8015
▁planning	-8016
▁verzekering	-8017
▁voornaamste	-8018
PT	-8019
aft	-8020
lang	-8021
▁irr	-8022
▁alsnog	-8023
incendie	-8024
▁verwijs	-8025
▁afspraken	-8026
▁provenant	-8027
▁huisartsen	-8028
ath	-8029
oses	-8030
prem	-8031
▁Acc	-8032
▁fru	-8033
obili	-8034
▁Land	-8035
dieten	-8036
▁recon	-8037
orderen	-8038
▁daling	-8039
▁hypoth	-8040
▁profil	-8041
▁anticip	-8042
▁reconnus	-8043
▁trouvent	-8044
▁besluiten	-8045
▁criminels	-8046
▁cotisation	-8047
35	-8048
...)	-8049
▁Kem	-8050
▁can	-8051
pensi	-8052
▁2001	-8053
affing	-8054
▁Vindt	-8055
▁magas	-8056
▁tenir	-8057
capitul	-8058
▁2014?2.	-8059
▁gedetaille	-8060
▁ontwikkeld	-8061
▁toelichting	-8062
▁discrimination	-8063
dez	-8064
▁Nam	-8065
▁Hand	-8066
▁maje	-8067
▁normen	-8068
▁petites	-8069
▁vernieuw	-8070
▁protocole	-8071
▁Mus	-8072
▁feu	-8073
graal	-8074
valle	-8075
▁Bank	-8076
▁keur	-8077
▁trekt	-8078
▁diffus	-8079
▁Benelux	-8080
▁melding	-8081
▁combattants	-8082
▁ontwikkelen	-8083
Uni	-8084
nelle	-8085
ximit	-8086
beheer	-8087
▁2019,	-8088
▁futur	-8089
geleide	-8090
gebouwen	-8091
inateurs	-8092
▁meerder	-8093
▁propose	-8094
▁existent	-8095
▁proximit	-8096
▁constituer	-8097
▁couverture	-8098
▁verduidelijken	-8099
wijd	-8100
erman	-8101
▁Niet	-8102
▁Nieuw	-8103
▁buurt	-8104
▁indis	-8105
▁valse	-8106
roports	-8107
gestuurd	-8108
uellement	-8109
infraction	-8110
▁opstellen	-8111
▁misdrijven	-8112
▁vooruitgang	-8113
▁uitzondering	-8114
▁7.	-8115
ires	-8116
phon	-8117
oises	-8118
▁2004	-8119
▁sait	-8120
▁avocats	-8121
▁gevoerd	-8122
▁ondanks	-8123
▁oorzaak	-8124
▁Grondwet	-8125
▁wallonne	-8126
▁opgemaakt	-8127
▁verkregen	-8128
gularisation	-8129
hing	-8130
▁CEO	-8131
isatie	-8132
luitend	-8133
tegraal	-8134
▁Aantal	-8135
▁dirige	-8136
▁formes	-8137
▁vernie	-8138
idelijke	-8139
▁gratuit	-8140
▁gebieden	-8141
▁strafrecht	-8142
▁38	-8143
boven	-8144
isent	-8145
ograf	-8146
ogique	-8147
▁objet	-8148
▁stren	-8149
▁verval	-8150
▁wijzen	-8151
indemnit	-8152
▁ontslag	-8153
▁catastro	-8154
▁augmenter	-8155
▁auxquelles	-8156
▁consultancy	-8157
lob	-8158
▁48	-8159
orst	-8160
roul	-8161
tach	-8162
keling	-8163
▁Dublin	-8164
▁entrer	-8165
▁ruimte	-8166
automaten	-8167
▁suscepti	-8168
richtingen	-8169
▁informati	-8170
▁toegelaten	-8171
▁voorganger	-8172
▁consultance	-8173
▁scientifiques	-8174
cla	-8175
▁FA	-8176
▁TIC	-8177
▁conv	-8178
▁beoog	-8179
▁bezig	-8180
icaties	-8181
itische	-8182
approche	-8183
▁oorzaken	-8184
▁verpleeg	-8185
▁vaststellen	-8186
99	-8187
agir	-8188
loon	-8189
▁fixe	-8190
▁devra	-8191
▁kopen	-8192
▁minutes	-8193
▁traiter	-8194
▁milliers	-8195
▁logements	-8196
▁changements	-8197
▁gemakkelijk	-8198
maatschappijen	-8199
▁tewerkstelling	-8200
ses	-8201
▁HR	-8202
?10.	-8203
rang	-8204
▁vul	-8205
▁alin	-8206
▁sold	-8207
geleid	-8208
▁nacht	-8209
▁orale	-8210
▁Duitse	-8211
▁chiffr	-8212
▁classe	-8213
▁schijn	-8214
▁central	-8215
▁dankzij	-8216
▁tickets	-8217
▁immobili	-8218
▁pedelecs	-8219
▁uitgewerkt	-8220
▁voorkomende	-8221
▁samenstelling	-8222
elter	-8223
sents	-8224
▁spel	-8225
▁toil	-8226
▁shift	-8227
▁Ombuds	-8228
handicap	-8229
▁behouden	-8230
▁gezinsheren	-8231
▁voornamelijk	-8232
▁asielaanvragen	-8233
▁Bal	-8234
▁vra	-8235
aming	-8236
avait	-8237
▁lich	-8238
▁rejo	-8239
▁geble	-8240
▁super	-8241
ogingen	-8242
▁privacy	-8243
▁plateforme	-8244
▁provisoire	-8245
▁aanvullende	-8246
▁400	-8247
▁empr	-8248
ulsion	-8249
▁bevat	-8250
▁forte	-8251
▁volume	-8252
adoption	-8253
▁Bestaan	-8254
reizigers	-8255
▁Zaventem	-8256
hervorming	-8257
▁correction	-8258
▁instrument	-8259
▁technologies	-8260
CO	-8261
oof	-8262
▁Cr	-8263
cole	-8264
larg	-8265
▁120	-8266
ating	-8267
usses	-8268
▁harc	-8269
▁bezoek	-8270
▁omvang	-8271
▁opmerk	-8272
trekking	-8273
▁blijken	-8274
▁optreden	-8275
▁lancement	-8276
▁materiaal	-8277
capitulatif	-8278
▁patrimoine	-8279
vertegenwoord	-8280
▁automatiques	-8281
,5	-8282
mans	-8283
unis	-8284
▁ment	-8285
cisant	-8286
▁bilat	-8287
▁krant	-8288
▁omsch	-8289
▁anders	-8290
matische	-8291
▁discipl	-8292
▁ongeval	-8293
▁repatri	-8294
▁exercices	-8295
▁habitants	-8296
▁ondernemers	-8297
▁Part	-8298
▁nage	-8299
▁bloed	-8300
livrance	-8301
▁daadwerk	-8302
▁expliquez	-8303
▁veroorzaakt	-8304
identification	-8305
aid	-8306
ekt	-8307
iep	-8308
sit	-8309
▁32	-8310
▁Ren	-8311
▁audi	-8312
onction	-8313
▁Hoewel	-8314
▁zoveel	-8315
pensioen	-8316
▁minuten	-8317
▁justitie	-8318
procedures	-8319
▁bevorderen	-8320
▁juridiques	-8321
▁beveiliging	-8322
▁verenigingen	-8323
NI	-8324
�-	-8325
paard	-8326
▁oude	-8327
camera	-8328
igings	-8329
▁doute	-8330
▁remar	-8331
volging	-8332
▁cadres	-8333
▁exacte	-8334
▁slecht	-8335
rekening	-8336
▁Hasselt	-8337
▁stelsel	-8338
employeur	-8339
▁analyses	-8340
▁mutualit	-8341
▁toestand	-8342
▁fonctionnaire	-8343
hor	-8344
vel	-8345
ilip	-8346
meer	-8347
nurie	-8348
▁sort	-8349
telijk	-8350
netwerk	-8351
finition	-8352
▁animaux	-8353
▁opgedeeld	-8354
▁applications	-8355
...	-8356
▁Bre	-8357
▁Cro	-8358
▁ici	-8359
entra	-8360
▁fort	-8361
aseerd	-8362
▁pertin	-8363
dicament	-8364
▁brieven	-8365
verklaring	-8366
▁Plusieurs	-8367
acquisition	-8368
▁afhankelijk	-8369
▁plaatsvinden	-8370
uy	-8371
ium	-8372
tel	-8373
zit	-8374
�?4.	-8375
rengt	-8376
▁Coop	-8377
diaire	-8378
▁gezamen	-8379
▁attendre	-8380
▁retraite	-8381
▁expertise	-8382
▁gesprekken	-8383
▁participer	-8384
▁arbeidsmarkt	-8385
▁Vluchtelingen	-8386
MS	-8387
vere	-8388
▁sau	-8389
chant	-8390
onger	-8391
▁huit	-8392
centen	-8393
▁logis	-8394
burgers	-8395
▁cannab	-8396
▁evalue	-8397
▁rijzen	-8398
▁mondelinge	-8399
▁verklaarde	-8400
arrondissement	-8401
7)	-8402
duc	-8403
vrien	-8404
▁neer	-8405
▁nomm	-8406
▁vand	-8407
plicht	-8408
quipes	-8409
▁tenus	-8410
Hoeveel	-8411
▁stress	-8412
▁tarieven	-8413
intervalle	-8414
▁ambtenaar	-8415
▁informeren	-8416
▁nationaliteiten	-8417
cut	-8418
nings	-8419
rente	-8420
▁nett	-8421
houder	-8422
▁Comme	-8423
▁Straf	-8424
▁ouder	-8425
▁ouvert	-8426
▁chances	-8427
▁immobil	-8428
▁continue	-8429
▁faciliter	-8430
▁Koninkrijk	-8431
elpen	-8432
orderd	-8433
▁stage	-8434
▁faible	-8435
▁source	-8436
applique	-8437
tiennent	-8438
▁auxquels	-8439
▁besparingen	-8440
▁administratif	-8441
▁iss	-8442
Ainsi	-8443
maals	-8444
aissent	-8445
pertise	-8446
rapport	-8447
▁partis	-8448
▁naleving	-8449
▁vaststellingen	-8450
▁automatiquement	-8451
pir	-8452
deelt	-8453
▁visas	-8454
flexion	-8455
▁enfant	-8456
▁selectie	-8457
▁evalueert	-8458
▁aangewezen	-8459
▁comportements	-8460
doc	-8461
▁ax	-8462
▁Avec	-8463
▁Pensi	-8464
▁abatt	-8465
▁Turkse	-8466
assement	-8467
▁examens	-8468
▁organen	-8469
▁valable	-8470
handeling	-8471
▁Direction	-8472
bestrijding	-8473
▁duidelijke	-8474
▁voorgaande	-8475
▁stationnement	-8476
tingen	-8477
▁honor	-8478
▁klaar	-8479
▁volgt	-8480
gionaux	-8481
▁lettre	-8482
voorzien	-8483
▁doeltre	-8484
voorwaarden	-8485
▁handelaars	-8486
▁bevindingen	-8487
▁importantes	-8488
▁transmettre	-8489
▁treinbegeleid	-8490
fact	-8491
▁pir	-8492
Sinds	-8493
brill	-8494
issue	-8495
leven	-8496
ussie	-8497
vrouw	-8498
▁Toch	-8499
▁faci	-8500
▁qualifi	-8501
▁vereist	-8502
▁Cependant	-8503
▁assurance	-8504
▁voorwaarde	-8505
ype	-8506
dues	-8507
pist	-8508
▁Via	-8509
techn	-8510
▁Verd	-8511
▁dubb	-8512
▁incl	-8513
rience	-8514
▁prime	-8515
▁gewone	-8516
▁renvoy	-8517
▁retrou	-8518
currence	-8519
▁oordeel	-8520
▁verdrag	-8521
projecten	-8522
▁ambassades	-8523
▁poursuivre	-8524
▁onduidelijk	-8525
▁condamnations	-8526
anker	-8527
▁vond	-8528
decine	-8529
groepen	-8530
▁Controle	-8531
▁Schengen	-8532
▁effecten	-8533
▁informer	-8534
▁kerncent	-8535
▁prendrez	-8536
curisation	-8537
▁conclusion	-8538
▁prestataires	-8539
▁uitgeschreven	-8540
iz	-8541
blik	-8542
kent	-8543
umer	-8544
▁?3.	-8545
igence	-8546
rieurs	-8547
▁utile	-8548
▁routes	-8549
▁verzek	-8550
▁interdit	-8551
▁exigences	-8552
▁overwogen	-8553
▁jaarverslag	-8554
overschrijden	-8555
RT	-8556
neemt	-8557
vraag	-8558
▁carb	-8559
▁inci	-8560
▁pauv	-8561
autant	-8562
brengen	-8563
▁chirurg	-8564
▁stoffen	-8565
▁Limbourg	-8566
▁paiements	-8567
▁terroriste	-8568
▁vertragingen	-8569
3)	-8570
orps	-8571
quit	-8572
soft	-8573
▁cla	-8574
ierre	-8575
ancier	-8576
▁avions	-8577
▁combin	-8578
▁dettes	-8579
▁schuld	-8580
▁mondial	-8581
▁opbreng	-8582
▁consulter	-8583
▁Staatsblad	-8584
▁gevangenen	-8585
fen	-8586
mme	-8587
aceu	-8588
ciaal	-8589
▁virt	-8590
tation	-8591
▁artis	-8592
▁pression	-8593
▁principes	-8594
▁programmes	-8595
▁mi	-8596
inste	-8597
▁voet	-8598
anning	-8599
riodes	-8600
iennent	-8601
▁geraam	-8602
igranten	-8603
▁location	-8604
▁operaties	-8605
▁bruxellois	-8606
▁regroupement	-8607
45	-8608
IPT	-8609
rof	-8610
▁37	-8611
▁IC	-8612
fice	-8613
loos	-8614
▁stond	-8615
▁wegen	-8616
exemple	-8617
▁obstac	-8618
▁sluiting	-8619
▁Rijksdienst	-8620
heb	-8621
ares	-8622
▁Cel	-8623
spers	-8624
ertion	-8625
illage	-8626
▁aldus	-8627
izenden	-8628
▁midden	-8629
verminder	-8630
▁verleend	-8631
▁essentiel	-8632
ctuellement	-8633
▁provenance	-8634
▁similaires	-8635
▁comparaison	-8636
▁consultation	-8637
Na	-8638
ip	-8639
▁250	-8640
▁has	-8641
okkel	-8642
▁conjo	-8643
▁vlees	-8644
waardig	-8645
▁function	-8646
▁software	-8647
nitentiaires	-8648
ompl	-8649
komens	-8650
tering	-8651
vragen	-8652
▁Micro	-8653
▁pertes	-8654
partements	-8655
▁demandeur	-8656
▁correctement	-8657
IF	-8658
ints	-8659
▁fus	-8660
▁out	-8661
▁cumul	-8662
▁texte	-8663
▁eerdere	-8664
▁fiscaux	-8665
▁seconde	-8666
▁toegest	-8667
▁snelheid	-8668
▁entrepren	-8669
nitentiaire	-8670
▁concernent	-8671
▁onmogelijk	-8672
isp	-8673
▁39	-8674
▁57	-8675
erap	-8676
uman	-8677
ataire	-8678
beroep	-8679
▁onver	-8680
▁wilde	-8681
▁Gezond	-8682
▁aanbod	-8683
▁brengt	-8684
▁gewoon	-8685
▁secret	-8686
ralistes	-8687
▁ogenblik	-8688
▁opleidings	-8689
▁strategische	-8690
Nous	-8691
ruis	-8692
▁Tih	-8693
▁inh	-8694
achte	-8695
▁Outre	-8696
▁Stand	-8697
▁melden	-8698
▁Tihange	-8699
▁conflit	-8700
aissances	-8701
augmenter	-8702
▁autonome	-8703
▁effective	-8704
▁utilisent	-8705
▁communales	-8706
▁radicalisme	-8707
▁vennootschaps	-8708
19	-8709
ref	-8710
tisme	-8711
heures	-8712
▁diminu	-8713
▁vendre	-8714
▁dresser	-8715
▁gewijzigd	-8716
▁largement	-8717
uze	-8718
vet	-8719
/201	-8720
rapt	-8721
▁vuln	-8722
orgaan	-8723
bestand	-8724
emplois	-8725
▁attest	-8726
▁consen	-8727
▁indirecte	-8728
▁possibles	-8729
▁bestemming	-8730
▁certificat	-8731
▁ingetrokken	-8732
▁Bru	-8733
tiver	-8734
▁Hoge	-8735
▁zegt	-8736
tuigen	-8737
▁Daarom	-8738
▁complexe	-8739
▁modifier	-8740
▁verhelpen	-8741
▁waarborgen	-8742
geschiktheid	-8743
▁restaurants	-8744
▁2000	-8745
▁trap	-8746
▁musul	-8747
▁maakte	-8748
bewijzen	-8749
ortement	-8750
▁afstand	-8751
▁indispens	-8752
▁ministerie	-8753
▁professionele	-8754
27	-8755
rs	-8756
ius	-8757
▁tas	-8758
Welke	-8759
abord	-8760
▁orig	-8761
soudre	-8762
▁norme	-8763
▁rense	-8764
fibrill	-8765
▁voorst	-8766
▁terugge	-8767
▁promouvoir	-8768
▁cijfergegevens	-8769
▁jug	-8770
anken	-8771
▁Mons	-8772
▁banen	-8773
▁Loterij	-8774
▁intercept	-8775
▁verliezen	-8776
▁possession	-8777
▁smartphone	-8778
▁diplomatieke	-8779
IA	-8780
Aut	-8781
tru	-8782
▁Th	-8783
erez	-8784
even	-8785
▁Res	-8786
bevol	-8787
tente	-8788
tablie	-8789
▁Pensez	-8790
▁limite	-8791
▁ontbre	-8792
▁burgeme	-8793
▁remplir	-8794
▁bijgevolg	-8795
▁deelnemen	-8796
▁dringende	-8797
FAVV	-8798
ekse	-8799
mpel	-8800
oemd	-8801
▁ram	-8802
▁onbe	-8803
▁vote	-8804
ailles	-8805
▁Suite	-8806
▁demeure	-8807
▁tableau	-8808
▁publieke	-8809
▁verloren	-8810
▁simplement	-8811
▁condamnation	-8812
▁interdiction	-8813
14	-8814
igne	-8815
▁GSM	-8816
▁bro	-8817
▁sug	-8818
kunde	-8819
▁ingre	-8820
apitaal	-8821
changes	-8822
▁cherche	-8823
▁compter	-8824
insertion	-8825
▁gouverne	-8826
▁renouvel	-8827
▁progressi	-8828
▁individuele	-8829
uiv	-8830
ute	-8831
tica	-8832
tayer	-8833
▁Verv	-8834
tistes	-8835
▁Notre	-8836
▁Loterie	-8837
▁factuur	-8838
▁onrecht	-8839
▁starten	-8840
Allemagne	-8841
▁Verenigd	-8842
▁helemaal	-8843
▁enregistre	-8844
▁investeren	-8845
▁partenaire	-8846
communicatie	-8847
omstandigheden	-8848
hel	-8849
nis	-8850
ntie	-8851
feder	-8852
ourgm	-8853
appare	-8854
lingen	-8855
▁Bureau	-8856
▁defini	-8857
▁Sommige	-8858
▁aspects	-8859
▁instance	-8860
▁limitation	-8861
▁prestaties	-8862
▁goedkeuring	-8863
▁traitements	-8864
▁deelgebieden	-8865
verl	-8866
namen	-8867
rance	-8868
▁quas	-8869
indien	-8870
▁retir	-8871
▁trend	-8872
centages	-8873
matiques	-8874
▁positie	-8875
▁pratiqu	-8876
Cependant	-8877
instelling	-8878
▁Questions	-8879
▁Toutefois	-8880
▁kilometer	-8881
▁migration	-8882
▁mobiliteits	-8883
▁autorisation	-8884
▁invaliditeits	-8885
ada	-8886
tur	-8887
anie	-8888
ikte	-8889
▁Meer	-8890
▁mach	-8891
▁rent	-8892
server	-8893
▁invit	-8894
▁namen	-8895
vements	-8896
▁permanent	-8897
▁gehanteerd	-8898
▁verbinding	-8899
OB	-8900
bod	-8901
udie	-8902
icole	-8903
timis	-8904
▁corr	-8905
▁neuf	-8906
▁subi	-8907
elaars	-8908
luence	-8909
▁spits	-8910
ivement	-8911
▁histor	-8912
▁plaatse	-8913
▁betaalde	-8914
▁devaient	-8915
▁eigendom	-8916
▁interess	-8917
▁licencie	-8918
▁vereiste	-8919
instruction	-8920
▁overtreding	-8921
overeenkomsten	-8922
cart	-8923
▁ONG	-8924
ertes	-8925
genen	-8926
stall	-8927
▁ajout	-8928
ricaine	-8929
telijke	-8930
▁Vragen	-8931
▁bourgm	-8932
▁seksuele	-8933
▁speciale	-8934
▁criminele	-8935
▁verhoging	-8936
NPR	-8937
▁Po	-8938
beur	-8939
deur	-8940
nummer	-8941
▁issus	-8942
▁lands	-8943
▁leidt	-8944
▁thema	-8945
▁inzetten	-8946
▁parcours	-8947
▁straffen	-8948
allocation	-8949
▁gebaseerd	-8950
▁accessibles	-8951
6)	-8952
ONEM	-8953
clai	-8954
quets	-8955
▁diss	-8956
affect	-8957
ending	-8958
▁Namen	-8959
overtre	-8960
▁Budget	-8961
▁handen	-8962
▁nuttig	-8963
▁pouvait	-8964
▁saisies	-8965
▁schrijven	-8966
▁referentie	-8967
▁luchthavens	-8968
administrateur	-8969
▁Roi	-8970
gever	-8971
macht	-8972
▁fase	-8973
rienne	-8974
▁Vanaf	-8975
▁juste	-8976
▁arbeid	-8977
▁petits	-8978
dossiers	-8979
▁Verslag	-8980
▁cohabit	-8981
▁aankopen	-8982
DA	-8983
okt	-8984
▁rev	-8985
allen	-8986
cture	-8987
ports	-8988
▁ASBL	-8989
▁CGVS	-8990
riment	-8991
wassen	-8992
▁bevel	-8993
▁encad	-8994
▁goedk	-8995
▁opgel	-8996
▁atteintes	-8997
▁ontwikkel	-8998
▁sexuelles	-8999
▁voorgelegd	-9000
▁aangevraagd	-9001
El	-9002
▁%)	-9003
ASBL	-9004
ijen	-9005
▁lac	-9006
▁vid	-9007
aucun	-9008
ficie	-9009
▁koop	-9010
attaque	-9011
accident	-9012
▁complet	-9013
▁militair	-9014
▁uitspraak	-9015
▁betalingen	-9016
▁regularisatie	-9017
▁terroristische	-9018
kee	-9019
nik	-9020
▁CT	-9021
▁Of	-9022
ping	-9023
veaus	-9024
adresse	-9025
▁parent	-9026
pliquent	-9027
▁retirer	-9028
▁exercice	-9029
▁prolonge	-9030
adaptation	-9031
▁supprimer	-9032
medewerkers	-9033
▁financieel	-9034
▁cyberaanvallen	-9035
CB	-9036
CN	-9037
Con	-9038
regel	-9039
rijft	-9040
ijdens	-9041
▁hierop	-9042
istische	-9043
▁dubbele	-9044
conomisch	-9045
▁bancaire	-9046
▁penitenti	-9047
▁permettra	-9048
▁luchtvaart	-9049
�)	-9050
▁46	-9051
▁up	-9052
Cent	-9053
erse	-9054
▁ere	-9055
enden	-9056
▁isol	-9057
▁telt	-9058
giften	-9059
▁ernstig	-9060
▁quartier	-9061
▁impliquant	-9062
▁totalement	-9063
▁contribuable	-9064
▁gedeeltelijk	-9065
▁administratief	-9066
CL	-9067
audit	-9068
ralis	-9069
▁ANPR	-9070
▁coal	-9071
voerde	-9072
▁negen	-9073
▁stuur	-9074
▁geldig	-9075
▁meestal	-9076
standigen	-9077
▁diefstal	-9078
▁Ontwikkelings	-9079
efd	-9080
sid	-9081
▁8.	-9082
gral	-9083
temd	-9084
▁Can	-9085
▁leg	-9086
▁tun	-9087
▁ves	-9088
alige	-9089
lijst	-9090
▁Lijn	-9091
ignant	-9092
ignent	-9093
nforme	-9094
▁clair	-9095
kkelijk	-9096
stoffen	-9097
▁hasard	-9098
▁hogere	-9099
▁honder	-9100
eleinden	-9101
▁opmaken	-9102
▁conflict	-9103
▁facteurs	-9104
▁trouwens	-9105
▁vernomen	-9106
▁rencontre	-9107
▁toegenomen	-9108
▁vrouwelijke	-9109
▁circonstances	-9110
▁gelijkaardige	-9111
32	-9112
▁Per	-9113
waren	-9114
▁hack	-9115
iziger	-9116
▁heure	-9117
uration	-9118
▁bijeen	-9119
platform	-9120
▁commises	-9121
▁degelijk	-9122
▁Microsoft	-9123
▁Russische	-9124
uitkeringen	-9125
uc	-9126
▁dj	-9127
cide	-9128
irma	-9129
▁Mer	-9130
▁bod	-9131
betal	-9132
andaag	-9133
tenues	-9134
▁achet	-9135
▁excep	-9136
▁sedert	-9137
chanisme	-9138
verbruik	-9139
▁prijzen	-9140
▁psychos	-9141
▁spoorwegen	-9142
▁investerings	-9143
//	-9144
▁Vo	-9145
tiel	-9146
adres	-9147
astat	-9148
fices	-9149
gings	-9150
▁Camp	-9151
ijnzen	-9152
▁geheel	-9153
▁voient	-9154
▁voorbe	-9155
▁fysieke	-9156
▁langdur	-9157
▁mobiles	-9158
orderingen	-9159
▁substances	-9160
▁structurele	-9161
pleg	-9162
rdine	-9163
▁acqu	-9164
risico	-9165
▁Namur	-9166
▁tabac	-9167
elijkse	-9168
nergies	-9169
▁hospit	-9170
▁nieuws	-9171
▁Moniteur	-9172
▁cannabis	-9173
▁magasins	-9174
▁minimale	-9175
▁verkopen	-9176
▁nationales	-9177
▁producteurs	-9178
▁overeenkomsten	-9179
11	-9180
blok	-9181
▁diz	-9182
enzen	-9183
▁CGRA	-9184
▁Thal	-9185
unstig	-9186
ussion	-9187
▁grave	-9188
▁daders	-9189
formatie	-9190
obtention	-9191
▁adviezen	-9192
▁verhoogde	-9193
▁berekening	-9194
▁principale	-9195
EN	-9196
GR	-9197
lie	-9198
▁kaz	-9199
▁pren	-9200
▁keren	-9201
▁marge	-9202
inement	-9203
▁actuele	-9204
▁logique	-9205
▁normale	-9206
▁reclame	-9207
▁allemand	-9208
▁bevatten	-9209
▁concrets	-9210
▁conflits	-9211
▁monsieur	-9212
▁critiques	-9213
▁incapacit	-9214
▁maintenir	-9215
▁comportement	-9216
▁informatiques	-9217
95	-9218
://	-9219
▁AD	-9220
eker	-9221
jobs	-9222
▁DVZ	-9223
▁cry	-9224
ciens	-9225
vocat	-9226
▁exer	-9227
▁Organ	-9228
▁lager	-9229
▁tourn	-9230
pistage	-9231
respect	-9232
▁allant	-9233
▁puisqu	-9234
ductions	-9235
▁betaalt	-9236
▁stemmen	-9237
ankelijke	-9238
vordering	-9239
▁gestionn	-9240
▁intellig	-9241
▁papieren	-9242
▁gefinanci	-9243
▁afschaffing	-9244
▁hulpverlenings	-9245
▁half	-9246
▁rejet	-9247
gewerkt	-9248
▁parkeer	-9249
wijziging	-9250
▁atteints	-9251
antwoorden	-9252
▁additionn	-9253
▁eenvoudig	-9254
▁verstrekt	-9255
▁estimations	-9256
▁criminaliteit	-9257
▁vrijwilligers	-9258
▁plaatsgevonden	-9259
▁tox	-9260
domein	-9261
laging	-9262
▁cigar	-9263
▁schad	-9264
euillez	-9265
tailler	-9266
▁matern	-9267
oordelen	-9268
oriteiten	-9269
ographique	-9270
▁Certaines	-9271
▁actuelles	-9272
▁assurances	-9273
▁statutaire	-9274
36	-9275
▁56	-9276
▁SW	-9277
▁Was	-9278
ultes	-9279
giques	-9280
▁accru	-9281
▁groen	-9282
▁local	-9283
▁volks	-9284
ritable	-9285
▁invoqu	-9286
▁pharmac	-9287
incidents	-9288
▁dialogue	-9289
▁omgeving	-9290
▁principal	-9291
▁behandelen	-9292
▁herziening	-9293
▁conventions	-9294
▁maatschappij	-9295
ama	-9296
igh	-9297
rains	-9298
▁fich	-9299
▁lage	-9300
crisis	-9301
▁extre	-9302
▁geboekt	-9303
▁geopend	-9304
▁persber	-9305
▁slechte	-9306
▁recourir	-9307
▁Infrastruct	-9308
▁utilisation	-9309
▁treinreizigers	-9310
9)	-9311
yn	-9312
▁UE	-9313
table	-9314
▁wonen	-9315
▁geform	-9316
▁proche	-9317
▁vertrek	-9318
▁dagelijks	-9319
▁trimestre	-9320
33	-9321
voie	-9322
▁mer	-9323
moede	-9324
volge	-9325
▁rust	-9326
deelte	-9327
porten	-9328
▁adres	-9329
▁aient	-9330
▁enfin	-9331
▁redev	-9332
▁Serait	-9333
passings	-9334
▁Personen	-9335
▁ontvangt	-9336
gebruikers	-9337
▁evalueren	-9338
▁uitkeringen	-9339
▁vooruitzicht	-9340
car	-9341
pop	-9342
niet	-9343
ujet	-9344
existe	-9345
▁enten	-9346
▁voorm	-9347
▁vrede	-9348
▁commen	-9349
▁veront	-9350
▁kantoor	-9351
▁pauvret	-9352
▁proches	-9353
▁uitgere	-9354
▁ontslagen	-9355
▁verklaren	-9356
▁wenselijk	-9357
gro	-9358
Afrik	-9359
iness	-9360
▁1998	-9361
ankzij	-9362
▁alarm	-9363
▁gezin	-9364
▁gekopp	-9365
▁gesele	-9366
▁nettoy	-9367
mentionn	-9368
▁Centrum	-9369
▁semblent	-9370
engagement	-9371
▁potentiel	-9372
▁veroordelingen	-9373
ria	-9374
▁76	-9375
wand	-9376
▁Nom	-9377
gelang	-9378
▁perce	-9379
aliment	-9380
ateriaal	-9381
▁hiermee	-9382
▁opgezet	-9383
▁werkings	-9384
▁discussion	-9385
▁realiseren	-9386
▁vandalisme	-9387
▁alternatieve	-9388
▁NB	-9389
adic	-9390
line	-9391
spel	-9392
▁pal	-9393
itann	-9394
onnel	-9395
orium	-9396
roger	-9397
dentif	-9398
▁annul	-9399
▁juges	-9400
▁individu	-9401
▁estimation	-9402
▁achterstand	-9403
▁susmentionn	-9404
▁Rijksinstituut	-9405
▁essentiellement	-9406
zer	-9407
▁Net	-9408
mande	-9409
▁1980	-9410
▁Iran	-9411
▁Begin	-9412
▁tenue	-9413
▁outils	-9414
▁privil	-9415
▁fraudes	-9416
▁richten	-9417
lectrique	-9418
▁vacances	-9419
▁aangaande	-9420
▁verplaats	-9421
▁Concernant	-9422
▁magistrats	-9423
▁vervolging	-9424
Sur	-9425
▁Ro	-9426
).2.	-9427
IBPT	-9428
mers	-9429
oond	-9430
roge	-9431
▁Syn	-9432
▁uni	-9433
▁Bien	-9434
▁carc	-9435
▁pall	-9436
▁rail	-9437
achter	-9438
pecten	-9439
▁Belge	-9440
▁major	-9441
▁aantre	-9442
▁primes	-9443
lichting	-9444
▁taalrol	-9445
▁vanwege	-9446
nformeerd	-9447
▁gestolen	-9448
▁parastat	-9449
▁officieel	-9450
▁uitoefenen	-9451
▁commissions	-9452
▁tegemoetkoming	-9453
vac	-9454
eneg	-9455
▁RSZ	-9456
▁Sup	-9457
▁Ten	-9458
quate	-9459
▁bete	-9460
▁camp	-9461
deelde	-9462
gional	-9463
▁ofwel	-9464
▁volet	-9465
▁moeder	-9466
entement	-9467
unningen	-9468
▁britann	-9469
▁persoons	-9470
▁aanbeveling	-9471
▁entreprendre	-9472
▁daadwerkelijk	-9473
▁internationaux	-9474
lon	-9475
low	-9476
old	-9477
lage	-9478
▁hot	-9479
ayant	-9480
▁kopp	-9481
▁uren	-9482
krediet	-9483
▁parler	-9484
internet	-9485
wegingen	-9486
▁sanctie	-9487
▁kabinets	-9488
▁familiale	-9489
▁effectieve	-9490
▁besprekingen	-9491
13	-9492
▁47	-9493
▁dw	-9494
▁Cor	-9495
ikken	-9496
▁stel	-9497
▁Zoals	-9498
▁graad	-9499
▁stade	-9500
▁subst	-9501
▁gekend	-9502
▁tijdig	-9503
▁uitdag	-9504
hanistan	-9505
utiliser	-9506
▁plaques	-9507
▁Nochtans	-9508
▁guichets	-9509
▁semester	-9510
occurrence	-9511
▁juridisch	-9512
▁cyberattaques	-9513
▁installations	-9514
VO	-9515
▁92	-9516
▁Sa	-9517
akte	-9518
▁New	-9519
igens	-9520
▁circ	-9521
▁flux	-9522
orient	-9523
▁Panne	-9524
▁appris	-9525
▁materi	-9526
agissant	-9527
▁hackers	-9528
Daarnaast	-9529
▁sexuelle	-9530
▁souffrant	-9531
▁verzoeken	-9532
▁structures	-9533
▁toegewezen	-9534
▁prescription	-9535
▁geneeskundige	-9536
We	-9537
gy	-9538
▁dr	-9539
pakk	-9540
▁Dou	-9541
▁KCE	-9542
▁gene	-9543
▁peri	-9544
▁voog	-9545
aantal	-9546
bracht	-9547
zingen	-9548
▁cardi	-9549
▁repas	-9550
▁Britse	-9551
▁democr	-9552
▁vendus	-9553
endingen	-9554
▁capital	-9555
▁partiel	-9556
incapacit	-9557
▁discussie	-9558
▁gevraagde	-9559
▁exclusivement	-9560
▁tri	-9561
wicht	-9562
▁Priv	-9563
▁tool	-9564
regels	-9565
▁greff	-9566
▁ingev	-9567
▁medic	-9568
▁repos	-9569
gevende	-9570
volgende	-9571
▁maisons	-9572
▁waaruit	-9573
▁eigenaar	-9574
▁bevolkings	-9575
▁Koninklijke	-9576
▁personnelles	-9577
▁overeenkomstig	-9578
PS	-9579
▁dal	-9580
▁kar	-9581
daden	-9582
▁geco	-9583
▁Asiel	-9584
▁rende	-9585
▁gelegd	-9586
▁remise	-9587
▁diploma	-9588
▁hieraan	-9589
▁restric	-9590
▁prennent	-9591
▁verhoogd	-9592
activiteiten	-9593
▁doorgevoerd	-9594
▁responsabil	-9595
▁uitsluitend	-9596
▁fournisseurs	-9597
▁totaalbedrag	-9598
▁voorzieningen	-9599
ami	-9600
cenn	-9601
oofd	-9602
riff	-9603
ieuwe	-9604
iling	-9605
oeien	-9606
auteur	-9607
ptions	-9608
▁Zeker	-9609
▁nette	-9610
▁notif	-9611
finitif	-9612
▁Thalys	-9613
▁caisse	-9614
▁fourni	-9615
▁gegaan	-9616
▁actives	-9617
▁dispens	-9618
▁deelname	-9619
▁horaires	-9620
▁oorspron	-9621
instanties	-9622
▁Zeebrugge	-9623
ondernemingen	-9624
▁geregistreerde	-9625
-,	-9626
die	-9627
FAST	-9628
▁rep	-9629
nales	-9630
▁Kort	-9631
thodes	-9632
▁accus	-9633
praktij	-9634
▁bedien	-9635
ficiaire	-9636
▁faibles	-9637
inspectie	-9638
ntegreerde	-9639
▁assistance	-9640
▁definitief	-9641
▁transition	-9642
▁uitbetaald	-9643
▁particulieren	-9644
▁recommandation	-9645
BT	-9646
loc	-9647
slag	-9648
envoi	-9649
▁toer	-9650
achtig	-9651
▁Denkt	-9652
wetboek	-9653
▁djihad	-9654
quemment	-9655
▁boissons	-9656
▁financer	-9657
▁parvenir	-9658
▁Koninklijk	-9659
▁beschikbare	-9660
▁parlementaires	-9661
▁ww	-9662
▁omb	-9663
▁www	-9664
▁leid	-9665
▁vide	-9666
▁immeu	-9667
blement	-9668
▁achats	-9669
▁homose	-9670
▁lancer	-9671
expertise	-9672
▁entendez	-9673
▁positive	-9674
▁bilaterale	-9675
▁collectieve	-9676
)?5.	-9677
▁600	-9678
▁nul	-9679
malig	-9680
teren	-9681
voque	-9682
umptie	-9683
▁affich	-9684
▁groepen	-9685
▁rekenen	-9686
▁soorten	-9687
begeleide	-9688
▁geleverd	-9689
▁diezelfde	-9690
▁ondertekend	-9691
▁vliegtuigen	-9692
overtredingen	-9693
mon	-9694
sif	-9695
caire	-9696
uiden	-9697
aringen	-9698
leiders	-9699
▁Brugge	-9700
▁koning	-9701
▁Syrische	-9702
▁naargelang	-9703
▁transfront	-9704
▁aanzienlijk	-9705
▁prolongement	-9706
aul	-9707
▁66	-9708
▁CS	-9709
."1.	-9710
iele	-9711
raft	-9712
▁Imp	-9713
datum	-9714
▁Elles	-9715
experts	-9716
▁Bruges	-9717
▁climat	-9718
▁plaque	-9719
▁ration	-9720
▁Verdrag	-9721
▁concept	-9722
lidstaten	-9723
verdeling	-9724
▁2011-201	-9725
▁afzonder	-9726
▁implique	-9727
▁sensibles	-9728
▁Gezondheids	-9729
non	-9730
▁Gaat	-9731
▁vuur	-9732
▁mosqu	-9733
▁omzet	-9734
▁pacte	-9735
▁spoed	-9736
▁10.000	-9737
▁hierin	-9738
campagnes	-9739
▁verschul	-9740
▁Nationaal	-9741
▁migrations	-9742
▁verwerking	-9743
▁Franstaligen	-9744
▁gefinancierd	-9745
ram	-9746
abel	-9747
▁130	-9748
▁Dig	-9749
ceerd	-9750
eloos	-9751
▁leer	-9752
▁nuis	-9753
alable	-9754
ambass	-9755
dament	-9756
marche	-9757
▁lance	-9758
▁ontde	-9759
▁tekst	-9760
▁Dender	-9761
▁absolu	-9762
▁regime	-9763
▁allemaal	-9764
▁kwartaal	-9765
▁bevestigd	-9766
▁vervullen	-9767
▁onroerende	-9768
▁aanzienlijke	-9769
16	-9770
sc	-9771
alth	-9772
▁202	-9773
▁fol	-9774
inese	-9775
▁prak	-9776
absent	-9777
▁zesde	-9778
▁Police	-9779
▁chemin	-9780
▁harmon	-9781
▁Travail	-9782
▁reprodu	-9783
▁spreken	-9784
▁agricole	-9785
▁schatting	-9786
▁psychosoci	-9787
▁verblijfstit	-9788
ros	-9789
▁caf	-9790
▁coe	-9791
roule	-9792
volgd	-9793
▁haal	-9794
▁veut	-9795
▁Spoor	-9796
▁jeune	-9797
▁vergro	-9798
effectif	-9799
▁2018?2.	-9800
▁aangere	-9801
▁inbreuk	-9802
▁livrais	-9803
▁scholen	-9804
erlandaise	-9805
▁interpret	-9806
PP	-9807
ww	-9808
terr	-9809
wist	-9810
oogle	-9811
volle	-9812
▁Glob	-9813
▁Peut	-9814
ournai	-9815
▁proac	-9816
▁situe	-9817
▁engend	-9818
▁namaak	-9819
▁patron	-9820
▁posent	-9821
▁opnemen	-9822
▁postaux	-9823
▁welzijn	-9824
▁Verkeers	-9825
▁Veuillez	-9826
▁domicili	-9827
▁terrains	-9828
▁woningen	-9829
▁subsidies	-9830
▁afgeschaft	-9831
▁climatique	-9832
▁introduire	-9833
▁prioriteit	-9834
▁publicatie	-9835
▁rechtspers	-9836
▁definitieve	-9837
▁gerealiseerd	-9838
▁vastgestelde	-9839
▁departementen	-9840
www	-9841
hulp	-9842
olid	-9843
sifs	-9844
tiez	-9845
ynam	-9846
keken	-9847
ouder	-9848
ourge	-9849
▁pous	-9850
aurais	-9851
instar	-9852
kanker	-9853
▁envers	-9854
▁moskee	-9855
▁uitvoer	-9856
▁version	-9857
▁Services	-9858
▁duurzaam	-9859
▁ensemble	-9860
▁inkomens	-9861
▁ontstaan	-9862
▁vernemen	-9863
percentage	-9864
▁modifiant	-9865
▁overdracht	-9866
MO	-9867
lan	-9868
▁It	-9869
▁VI	-9870
ekra	-9871
goci	-9872
▁afs	-9873
▁pes	-9874
▁qua	-9875
▁Mali	-9876
interm	-9877
itique	-9878
▁ongew	-9879
▁zwang	-9880
iversit	-9881
▁lasten	-9882
istentie	-9883
▁gehaald	-9884
▁Directie	-9885
▁soumises	-9886
▁subsides	-9887
▁infirmiers	-9888
/0	-9889
hang	-9890
▁Ind	-9891
▁Mis	-9892
ieuze	-9893
tarief	-9894
▁jeugd	-9895
▁jouer	-9896
▁tirer	-9897
atorium	-9898
▁detail	-9899
▁tandis	-9900
stermijn	-9901
▁voldoet	-9902
▁beroepen	-9903
▁reiziger	-9904
▁vermelden	-9905
▁chauffeurs	-9906
▁verzorging	-9907
▁commerciales	-9908
by	-9909
▁lu	-9910
Plus	-9911
erie	-9912
▁ing	-9913
▁rue	-9914
▁soi	-9915
ascul	-9916
parer	-9917
temin	-9918
▁debat	-9919
▁gener	-9920
premier	-9921
▁repris	-9922
▁straat	-9923
▁begunstig	-9924
▁organisme	-9925
voorheffing	-9926
98	-9927
char	-9928
tiqu	-9929
▁112	-9930
chelon	-9931
aisance	-9932
arissen	-9933
iensten	-9934
▁ombuds	-9935
▁importe	-9936
▁2013-201	-9937
▁kapitaal	-9938
▁extension	-9939
▁kwaliteits	-9940
▁verrichten	-9941
▁ontvangsten	-9942
▁veroordeling	-9943
ica	-9944
let	-9945
tot	-9946
lege	-9947
roken	-9948
▁cible	-9949
▁crypt	-9950
▁pense	-9951
▁zoeken	-9952
vaardigd	-9953
discrimin	-9954
▁conforme	-9955
verbinding	-9956
▁opgevolgd	-9957
▁taalkader	-9958
▁accessible	-9959
▁modaliteiten	-9960
▁overeenstemming	-9961
ck	-9962
▁Zw	-9963
▁Bra	-9964
aviez	-9965
▁Sous	-9966
▁Tijd	-9967
▁mail	-9968
▁nour	-9969
ankoop	-9970
▁copie	-9971
vidence	-9972
▁aftrek	-9973
▁evolue	-9974
▁produc	-9975
▁Grieken	-9976
▁gedaald	-9977
▁gebruikte	-9978
▁invulling	-9979
association	-9980
▁commerciaux	-9981
▁handelingen	-9982
uri	-9983
wat	-9984
.".1.	-9985
astre	-9986
aucune	-9987
mensen	-9988
▁onwet	-9989
▁meteen	-9990
▁oorlog	-9991
andering	-9992
▁apparti	-9993
▁fournit	-9994
▁aanslagjaar	-9995
▁compensation	-9996
▁duidelijkheid	-9997
4)	-9998
ms	-9999
▁42	-10000
uper	-10001
▁eth	-10002
▁rur	-10003
simil	-10004
▁prop	-10005
tekort	-10006
▁Celui	-10007
▁bases	-10008
▁Eurost	-10009
▁entite	-10010
▁honden	-10011
▁inning	-10012
▁interd	-10013
▁testen	-10014
▁daaraan	-10015
▁dialoog	-10016
▁retours	-10017
▁berekend	-10018
▁communale	-10019
▁standaard	-10020
▁evaluaties	-10021
▁laattijdig	-10022
▁Jo	-10023
accro	-10024
atell	-10025
chent	-10026
tiket	-10027
▁team	-10028
anceerd	-10029
visions	-10030
▁billet	-10031
▁geluid	-10032
▁conseill	-10033
▁stelling	-10034
▁vertrouw	-10035
▁vluchten	-10036
▁nettoyage	-10037
▁netwerken	-10038
▁verspreid	-10039
▁aanwerving	-10040
▁interventie	-10041
DOC	-10042
▁pra	-10043
arriv	-10044
danen	-10045
▁kust	-10046
▁leeg	-10047
▁quot	-10048
▁Belfi	-10049
stelsel	-10050
quilibre	-10051
bijdragen	-10052
▁aanvaard	-10053
▁daardoor	-10054
▁intention	-10055
ISI	-10056
Over	-10057
haus	-10058
▁Man	-10059
▁SPP	-10060
▁lum	-10061
emidd	-10062
finie	-10063
tails	-10064
▁2030	-10065
ection	-10066
roting	-10067
▁winkel	-10068
▁sexuels	-10069
▁Migration	-10070
▁agricoles	-10071
▁taalkaders	-10072
▁toegestaan	-10073
▁overgedragen	-10074
▁entrepreneurs	-10075
Is	-10076
�:	-10077
zeg	-10078
ctes	-10079
orde	-10080
▁ult	-10081
▁pens	-10082
▁sixi	-10083
▁marqu	-10084
▁Bergen	-10085
▁Brexit	-10086
▁wallon	-10087
▁voldaan	-10088
▁huwelijk	-10089
▁optimale	-10090
▁gedetache	-10091
▁procureurs	-10092
▁Griekenland	-10093
▁partenariat	-10094
▁vervoersplan	-10095
▁identificatie	-10096
.6.	-10097
afel	-10098
▁180	-10099
elate	-10100
poort	-10101
zigen	-10102
▁vice	-10103
aliers	-10104
couver	-10105
reizen	-10106
▁jihad	-10107
▁rente	-10108
▁analog	-10109
▁gezegd	-10110
▁notion	-10111
▁snelle	-10112
▁gestart	-10113
▁ouverts	-10114
▁voyages	-10115
entrepren	-10116
▁manifest	-10117
▁meilleur	-10118
▁meldpunt	-10119
▁rechtstreekse	-10120
BO	-10121
HR	-10122
usse	-10123
estim	-10124
halen	-10125
apport	-10126
gevaar	-10127
▁Oekra	-10128
▁accro	-10129
▁entam	-10130
▁juist	-10131
▁palais	-10132
▁Doornik	-10133
▁actieve	-10134
▁affaire	-10135
▁gedrags	-10136
▁portent	-10137
▁besliste	-10138
▁elementen	-10139
▁sindsdien	-10140
▁verdachte	-10141
▁voormelde	-10142
allocations	-10143
▁ordinateurs	-10144
▁versterking	-10145
39	-10146
▁Obs	-10147
▁POD	-10148
▁bat	-10149
aakte	-10150
igner	-10151
inqui	-10152
rijke	-10153
▁jobs	-10154
ricain	-10155
▁Gaudi	-10156
▁eraan	-10157
▁onafh	-10158
▁quitt	-10159
ventive	-10160
▁aanval	-10161
▁deelde	-10162
informer	-10163
asterplan	-10164
stellings	-10165
▁gekoppeld	-10166
▁snelheids	-10167
▁vliegtuig	-10168
▁applicable	-10169
▁compagnies	-10170
▁compensatie	-10171
▁agriculteurs	-10172
▁soortgelijke	-10173
▁onmiddellijke	-10174
komt	-10175
aleis	-10176
resser	-10177
serves	-10178
tecter	-10179
voient	-10180
▁seuil	-10181
▁wijst	-10182
▁suivie	-10183
finitive	-10184
▁Belfius	-10185
▁justifi	-10186
▁million	-10187
ambassade	-10188
▁aansprak	-10189
▁absolute	-10190
▁hospital	-10191
▁leefloon	-10192
▁uitmaken	-10193
▁Momenteel	-10194
▁nomination	-10195
▁recherches	-10196
▁natuurlijke	-10197
cou	-10198
fort	-10199
maar	-10200
vast	-10201
▁Pan	-10202
▁zee	-10203
dings	-10204
▁band	-10205
▁mass	-10206
▁slot	-10207
aisons	-10208
▁imams	-10209
▁voren	-10210
functie	-10211
ijnlijk	-10212
▁daarin	-10213
▁patrou	-10214
actualit	-10215
reffende	-10216
▁devenir	-10217
▁dochter	-10218
▁entendu	-10219
▁implant	-10220
▁moindre	-10221
▁argument	-10222
▁aspecten	-10223
valuations	-10224
▁soumettre	-10225
▁syndicales	-10226
▁digitalisering	-10227
▁potentiellement	-10228
ash	-10229
appr	-10230
nves	-10231
orth	-10232
ector	-10233
vreden	-10234
▁(...)	-10235
▁dicht	-10236
▁final	-10237
▁optie	-10238
▁kampen	-10239
▁sortie	-10240
operinge	-10241
▁lettres	-10242
verleners	-10243
▁Security	-10244
▁computer	-10245
▁ouvertes	-10246
▁potentiels	-10247
▁commissaire	-10248
▁gezamenlijke	-10249
DG	-10250
TP	-10251
fl	-10252
kan	-10253
gave	-10254
icide	-10255
riers	-10256
▁foto	-10257
tijdse	-10258
▁faute	-10259
▁omvat	-10260
▁weers	-10261
Afrique	-10262
verkoop	-10263
▁Recent	-10264
▁auquel	-10265
▁derden	-10266
▁bronnen	-10267
▁gekozen	-10268
▁mettent	-10269
▁constats	-10270
▁beleidscel	-10271
▁economisch	-10272
cor	-10273
▁67	-10274
▁CA	-10275
Door	-10276
hier	-10277
▁Med	-10278
enste	-10279
aanbod	-10280
ranten	-10281
▁explo	-10282
▁Nombre	-10283
▁merken	-10284
▁parall	-10285
▁schaal	-10286
▁sterke	-10287
▁uiteen	-10288
aangifte	-10289
▁Belgium	-10290
▁gepaard	-10291
▁reconnu	-10292
rablement	-10293
▁endroits	-10294
▁justifier	-10295
▁verkracht	-10296
▁werklozen	-10297
▁minnelijke	-10298
▁Internationale	-10299
▁renseignements	-10300
aie	-10301
hem	-10302
burg	-10303
pert	-10304
gaand	-10305
loopt	-10306
tilit	-10307
▁Tele	-10308
stende	-10309
▁Maroc	-10310
▁Cybers	-10311
▁Tournai	-10312
▁malades	-10313
abiliteit	-10314
▁gebleken	-10315
▁verlengd	-10316
▁dangereux	-10317
▁incidence	-10318
▁interview	-10319
▁passagers	-10320
▁provinces	-10321
▁sanctionn	-10322
bestuurders	-10323
▁alternatief	-10324
▁Ontwikkeling	-10325
▁Zelfstandigen	-10326
▁radicalisation	-10327
EDC	-10328
bli	-10329
▁ke	-10330
icit	-10331
▁Tru	-10332
ilige	-10333
veurs	-10334
▁Acht	-10335
▁bron	-10336
ureaus	-10337
▁2012.	-10338
▁impay	-10339
▁apparu	-10340
question	-10341
▁actuels	-10342
▁reprise	-10343
▁conformit	-10344
▁contenant	-10345
▁immobilier	-10346
▁bezorgdheid	-10347
▁instructions	-10348
▁simplification	-10349
plus	-10350
▁Bed	-10351
gency	-10352
gimes	-10353
rices	-10354
▁Kans	-10355
▁excl	-10356
▁symp	-10357
Emploi	-10358
▁beoor	-10359
▁dette	-10360
▁Midden	-10361
▁montre	-10362
▁preven	-10363
▁guichet	-10364
▁staking	-10365
▁bezoekers	-10366
▁signature	-10367
▁agentschap	-10368
▁gelanceerd	-10369
92	-10370
DR	-10371
FA	-10372
tt	-10373
wit	-10374
▁ri	-10375
▁ur	-10376
ijft	-10377
wend	-10378
▁Kos	-10379
▁mix	-10380
tenue	-10381
vlees	-10382
orting	-10383
rouwen	-10384
▁groei	-10385
ficiant	-10386
▁begrip	-10387
▁gewaar	-10388
▁betrouw	-10389
▁habilit	-10390
▁vermoed	-10391
▁prestation	-10392
▁vertrekken	-10393
▁geselecteerd	-10394
▁partiellement	-10395
SA	-10396
▁Uw	-10397
acqu	-10398
uiste	-10399
▁sauv	-10400
▁navig	-10401
▁wijten	-10402
woningen	-10403
▁kritiek	-10404
▁urgente	-10405
Bruxelles	-10406
zekerheid	-10407
▁inscrits	-10408
▁relation	-10409
▁vermelde	-10410
capaciteit	-10411
▁bancaires	-10412
▁meermaals	-10413
gezondheids	-10414
▁officielle	-10415
▁voorstander	-10416
▁geformuleerd	-10417
▁diplomatiques	-10418
bra	-10419
▁UN	-10420
leef	-10421
loot	-10422
▁1,5	-10423
▁Toe	-10424
▁rul	-10425
lecht	-10426
prong	-10427
▁deed	-10428
▁dras	-10429
▁enig	-10430
▁para	-10431
▁model	-10432
▁twijf	-10433
oeuvres	-10434
▁ladite	-10435
betaling	-10436
▁licenci	-10437
▁hierdoor	-10438
▁verbeterd	-10439
▁intervenir	-10440
ha	-10441
lei	-10442
ton	-10443
arif	-10444
arte	-10445
▁Elke	-10446
▁FSMA	-10447
▁chim	-10448
▁dood	-10449
asting	-10450
beslag	-10451
boetes	-10452
ulture	-10453
▁Samen	-10454
▁vlieg	-10455
bronnen	-10456
▁raming	-10457
stations	-10458
▁2016.1.	-10459
▁Brabant	-10460
Bovendien	-10461
▁negatief	-10462
▁weigeren	-10463
eenkomstig	-10464
▁confiance	-10465
▁aangepaste	-10466
NB	-10467
▁Su	-10468
dict	-10469
oens	-10470
▁kop	-10471
asing	-10472
encad	-10473
kerke	-10474
▁Tous	-10475
▁liti	-10476
▁meis	-10477
▁barri	-10478
▁woord	-10479
ruption	-10480
▁Google	-10481
▁interm	-10482
▁multil	-10483
▁Burundi	-10484
▁Gebruik	-10485
▁grenzen	-10486
appliquer	-10487
▁signaler	-10488
▁systemen	-10489
▁troubles	-10490
▁compagnie	-10491
▁obstacles	-10492
▁spoorlijn	-10493
▁facturation	-10494
▁recentelijk	-10495
▁indispensable	-10496
94	-10497
eri	-10498
▁Del	-10499
titut	-10500
▁brut	-10501
ijsten	-10502
iseert	-10503
▁Tegen	-10504
▁annon	-10505
▁famil	-10506
▁gecre	-10507
▁griff	-10508
verdrag	-10509
▁Philip	-10510
▁begele	-10511
▁satell	-10512
▁Campine	-10513
▁eenheid	-10514
▁religie	-10515
▁retrouv	-10516
cialisten	-10517
cialistes	-10518
nvesteerd	-10519
▁dotation	-10520
▁kantoren	-10521
▁employeur	-10522
▁fundament	-10523
▁uitgegeven	-10524
▁magistraten	-10525
▁administratifs	-10526
▁Ab	-10527
anch	-10528
reux	-10529
▁Vos	-10530
▁urb	-10531
agenda	-10532
horeca	-10533
▁tucht	-10534
riennes	-10535
▁Oosten	-10536
▁abouti	-10537
pendance	-10538
pensione	-10539
▁accises	-10540
▁attaque	-10541
▁hechten	-10542
▁Pourtant	-10543
▁Verviers	-10544
▁getuigen	-10545
▁pensioenen	-10546
▁provincies	-10547
▁uitgereikt	-10548
infrastructuur	-10549
▁kerncentrales	-10550
▁renseignement	-10551
▁werkgelegenheid	-10552
TF	-10553
wd	-10554
bond	-10555
gers	-10556
akter	-10557
erder	-10558
ispru	-10559
eleden	-10560
lieden	-10561
uriann	-10562
▁Pacte	-10563
▁stads	-10564
▁Canada	-10565
▁Kempen	-10566
▁acquis	-10567
▁toenem	-10568
▁methode	-10569
▁refuser	-10570
▁division	-10571
▁akkoorden	-10572
▁beslissen	-10573
▁rapporter	-10574
▁immobiliers	-10575
▁statutaires	-10576
▁susceptibles	-10577
▁alternatieven	-10578
▁gemeentelijke	-10579
sex	-10580
▁"�	-10581
▁Fl	-10582
▁VS	-10583
aalf	-10584
▁140	-10585
ffend	-10586
oegen	-10587
▁Hong	-10588
▁chin	-10589
hebben	-10590
nombre	-10591
▁Niger	-10592
▁Terug	-10593
▁culte	-10594
▁loket	-10595
▁quota	-10596
▁rekru	-10597
▁slaag	-10598
estement	-10599
risation	-10600
▁avertis	-10601
▁obtenus	-10602
▁conclure	-10603
▁distance	-10604
▁jurispru	-10605
▁wijzigen	-10606
ultination	-10607
▁demandent	-10608
▁similaire	-10609
rationnelle	-10610
▁contribuer	-10611
▁Veiligheids	-10612
▁bevordering	-10613
EB	-10614
jar	-10615
▁Cl	-10616
bres	-10617
doel	-10618
ogan	-10619
orie	-10620
actes	-10621
appui	-10622
kocht	-10623
mette	-10624
roept	-10625
▁Publ	-10626
▁miss	-10627
Hoewel	-10628
tiquet	-10629
▁verme	-10630
smokkel	-10631
▁bracht	-10632
▁vierde	-10633
opdracht	-10634
paravant	-10635
wachting	-10636
▁section	-10637
▁weekend	-10638
gerechtig	-10639
▁advocaat	-10640
▁parquets	-10641
▁salaires	-10642
▁viennent	-10643
▁exception	-10644
▁rejoindre	-10645
▁weigering	-10646
▁deskundigen	-10647
▁uitoefening	-10648
▁interventies	-10649
▁rapatriement	-10650
5)	-10651
5/	-10652
DC	-10653
HO	-10654
.),	-10655
Tur	-10656
mak	-10657
ola	-10658
Etat	-10659
olie	-10660
▁Fra	-10661
bride	-10662
cises	-10663
eraad	-10664
oning	-10665
porte	-10666
▁saou	-10667
▁colis	-10668
▁dynam	-10669
▁fermer	-10670
▁sommet	-10671
▁bevindt	-10672
▁connect	-10673
▁ouverte	-10674
▁presque	-10675
servation	-10676
▁gestelde	-10677
▁invoeren	-10678
assurances	-10679
▁aanspraak	-10680
▁intrekking	-10681
▁verlenging	-10682
▁voorbereid	-10683
▁aangesloten	-10684
▁gardiennage	-10685
▁gevaarlijke	-10686
▁bekendgemaakt	-10687
IT	-10688
mine	-10689
moed	-10690
vlie	-10691
▁Rou	-10692
erver	-10693
tapes	-10694
▁chan	-10695
▁dure	-10696
alerte	-10697
▁neutr	-10698
affaire	-10699
laborer	-10700
legging	-10701
verlies	-10702
▁Lorsqu	-10703
▁besmet	-10704
▁oudere	-10705
▁uitleg	-10706
officier	-10707
▁kranten	-10708
▁naleven	-10709
▁besloten	-10710
▁vakantie	-10711
iefstallen	-10712
quivalents	-10713
▁Poperinge	-10714
▁dreigings	-10715
▁islamique	-10716
▁maintenant	-10717
▁aangekondigde	-10718
beke	-10719
trai	-10720
▁gef	-10721
▁vit	-10722
gatif	-10723
phone	-10724
▁Jamb	-10725
▁Moet	-10726
appels	-10727
gouver	-10728
omencl	-10729
methode	-10730
▁wensen	-10731
vestigde	-10732
▁Daarbij	-10733
▁annonce	-10734
▁toestel	-10735
effectuer	-10736
▁overgangs	-10737
▁remplacer	-10738
▁aangebracht	-10739
▁installatie	-10740
▁transactions	-10741
▁signalisation	-10742
46	-10743
yme	-10744
OCDE	-10745
asie	-10746
danks	-10747
rapie	-10748
▁isra	-10749
Compte	-10750
ension	-10751
▁2019.	-10752
gebouwd	-10753
station	-10754
▁denken	-10755
▁schoon	-10756
▁Politie	-10757
▁consist	-10758
▁dollars	-10759
▁ontmoet	-10760
▁suffisant	-10761
▁Afrikaanse	-10762
▁inventaris	-10763
▁financieren	-10764
indemnisation	-10765
▁beschermings	-10766
▁dienstregeling	-10767
adv	-10768
eux	-10769
phe	-10770
Zuid	-10771
xion	-10772
▁Bul	-10773
Belgi	-10774
chats	-10775
parts	-10776
ratie	-10777
Indien	-10778
iforme	-10779
▁aband	-10780
schrift	-10781
▁Naties	-10782
▁claire	-10783
▁stroom	-10784
gislatif	-10785
lachtoff	-10786
▁adresse	-10787
▁armoede	-10788
▁moderne	-10789
▁treffen	-10790
▁toegevoe	-10791
▁dodelijke	-10792
▁vredegere	-10793
▁parlements	-10794
▁wereldwijd	-10795
▁smartphones	-10796
▁Gemeenschappen	-10797
lent	-10798
▁Mme	-10799
budget	-10800
identi	-10801
integr	-10802
quents	-10803
▁Enfin	-10804
▁cesse	-10805
Quelles	-10806
publiek	-10807
▁gingen	-10808
invester	-10809
▁Conform	-10810
atisation	-10811
extension	-10812
▁Securail	-10813
▁effectif	-10814
▁policier	-10815
ambtenaren	-10816
▁travaille	-10817
▁telewerken	-10818
▁opmerkingen	-10819
▁vluchteling	-10820
▁ondergebracht	-10821
▁reglementering	-10822
EI	-10823
bie	-10824
▁7,	-10825
itco	-10826
▁Mos	-10827
ibles	-10828
▁opin	-10829
platen	-10830
tifier	-10831
▁geest	-10832
▁poids	-10833
aardoor	-10834
ricains	-10835
▁propag	-10836
▁superm	-10837
▁faisait	-10838
▁menaces	-10839
▁dispense	-10840
▁suivante	-10841
▁eigenlijk	-10842
▁onderdeel	-10843
▁encourager	-10844
▁geantwoord	-10845
▁deelgenomen	-10846
Br	-10847
vee	-10848
▁5,	-10849
AFCN	-10850
aria	-10851
heim	-10852
loze	-10853
kader	-10854
▁bloc	-10855
▁rang	-10856
centes	-10857
estres	-10858
▁Alors	-10859
▁Lucht	-10860
urement	-10861
▁louter	-10862
▁uitdru	-10863
▁Marokko	-10864
▁leasing	-10865
▁machtig	-10866
▁observe	-10867
signation	-10868
▁huisvest	-10869
▁jeunesse	-10870
▁risquent	-10871
abonnement	-10872
▁envisager	-10873
immigration	-10874
▁contracten	-10875
▁attestation	-10876
▁overgemaakt	-10877
▁souhaitable	-10878
▁implementatie	-10879
48	-10880
ESO	-10881
lok	-10882
misd	-10883
beperk	-10884
elings	-10885
▁klass	-10886
▁menac	-10887
▁tonen	-10888
▁royaux	-10889
▁status	-10890
verkeers	-10891
▁Chinese	-10892
▁chantier	-10893
▁Politique	-10894
▁stiptheid	-10895
▁formulaire	-10896
▁multination	-10897
▁ziekenfondsen	-10898
47	-10899
Est	-10900
▁ME	-10901
usea	-10902
▁ray	-10903
keert	-10904
omend	-10905
oyens	-10906
rabel	-10907
strid	-10908
tents	-10909
▁hoor	-10910
ariats	-10911
ssembl	-10912
▁Global	-10913
▁bouwen	-10914
▁requis	-10915
▁tunnel	-10916
▁twaalf	-10917
▁voorts	-10918
bijdrage	-10919
krachten	-10920
▁Privacy	-10921
▁mariage	-10922
▁nomencl	-10923
inkomsten	-10924
▁centraal	-10925
▁dringend	-10926
▁figurent	-10927
▁ongeacht	-10928
▁rappeler	-10929
▁aantallen	-10930
▁gebeurten	-10931
▁gevoelige	-10932
▁rendement	-10933
glementaire	-10934
▁adaptation	-10935
▁geschillen	-10936
vermindering	-10937
bon	-10938
ime	-10939
ONSS	-10940
pris	-10941
▁RVA	-10942
▁bag	-10943
insel	-10944
▁erin	-10945
▁kent	-10946
▁lumi	-10947
gation	-10948
genoot	-10949
atricul	-10950
bureaus	-10951
wijzing	-10952
▁Jambon	-10953
▁afwijk	-10954
▁passag	-10955
▁transm	-10956
▁minorit	-10957
▁soumise	-10958
organiser	-10959
▁Hierdoor	-10960
▁karakter	-10961
verandering	-10962
▁existantes	-10963
▁meerderheid	-10964
▁inschrijving	-10965
▁consultations	-10966
kans	-10967
▁nal	-10968
reurs	-10969
water	-10970
▁zoek	-10971
vanche	-10972
▁echte	-10973
▁uitre	-10974
▁Astrid	-10975
▁Soudan	-10976
▁lagere	-10977
▁assujet	-10978
▁beheerd	-10979
▁breiden	-10980
▁rendent	-10981
▁roulant	-10982
lectrabel	-10983
uriannuel	-10984
▁revanche	-10985
▁Zekerheid	-10986
▁officiers	-10987
▁voorziene	-10988
▁classement	-10989
▁comprendre	-10990
▁subvention	-10991
▁Composition	-10992
▁aangehouden	-10993
▁conferentie	-10994
▁uitwisseling	-10995
▁Commissariaat	-10996
avec	-10997
sult	-10998
tend	-10999
asiel	-11000
ville	-11001
▁Unia	-11002
▁legt	-11003
orizon	-11004
▁Liban	-11005
▁zonne	-11006
Wanneer	-11007
fietsen	-11008
▁ancien	-11009
▁canaux	-11010
▁onderv	-11011
▁Lorsque	-11012
richtlijn	-11013
▁Kortrijk	-11014
▁durables	-11015
▁aangewend	-11016
▁hierboven	-11017
▁disponibilit	-11018
▁radicalisering	-11019
49	-11020
va	-11021
�;	-11022
▁DNA	-11023
chien	-11024
estin	-11025
▁Open	-11026
genees	-11027
quants	-11028
straat	-11029
▁Allez	-11030
▁Milit	-11031
▁femme	-11032
▁kassa	-11033
▁tradu	-11034
▁Nieuws	-11035
▁lijden	-11036
▁marque	-11037
▁Peeters	-11038
▁reconna	-11039
▁European	-11040
▁digitaal	-11041
▁loketten	-11042
ografische	-11043
'"	-11044
2-	-11045
�"	-11046
Van	-11047
▁85	-11048
gift	-11049
ilen	-11050
leut	-11051
meld	-11052
oegd	-11053
perc	-11054
▁geg	-11055
▁conj	-11056
export	-11057
▁schat	-11058
Autorit	-11059
▁assist	-11060
▁betrof	-11061
▁licence	-11062
▁vroeger	-11063
▁contrefa	-11064
▁eenheden	-11065
▁jugement	-11066
▁montrent	-11067
▁oefening	-11068
▁verbruik	-11069
▁contreven	-11070
▁rechtvaar	-11071
▁rechtspraak	-11072
▁relativement	-11073
▁vrachtwagens	-11074
ba	-11075
Ass	-11076
finir	-11077
▁cite	-11078
akelen	-11079
lische	-11080
▁aides	-11081
▁biodi	-11082
▁bloqu	-11083
▁douze	-11084
▁incit	-11085
▁recev	-11086
▁animal	-11087
▁positif	-11088
▁prescri	-11089
▁rapatri	-11090
▁renvoie	-11091
▁bewijzen	-11092
partissent	-11093
▁meerjaren	-11094
▁omzetting	-11095
▁parketten	-11096
affectation	-11097
▁afgeleverd	-11098
▁adaptations	-11099
▁appartenant	-11100
▁Strafwetboek	-11101
ope	-11102
▁53	-11103
▁DOC	-11104
uthan	-11105
▁MENA	-11106
▁clin	-11107
eleefd	-11108
geweld	-11109
icides	-11110
▁kopie	-11111
Artikel	-11112
▁alcool	-11113
▁brexit	-11114
systemen	-11115
tiquetage	-11116
▁capitale	-11117
▁diversit	-11118
rationnels	-11119
▁nageleefd	-11120
▁nationaux	-11121
▁toepassings	-11122
▁rechterlijke	-11123
zam	-11124
▁aid	-11125
▁bom	-11126
▁due	-11127
Bruss	-11128
EDCOM	-11129
itair	-11130
ommen	-11131
toest	-11132
▁Oper	-11133
▁hard	-11134
▁monn	-11135
oepass	-11136
oeuvre	-11137
▁rijks	-11138
▁spons	-11139
▁tweet	-11140
clusion	-11141
▁civils	-11142
gionales	-11143
▁exercer	-11144
▁mentale	-11145
▁Computer	-11146
▁humaines	-11147
▁mariages	-11148
▁tegelijk	-11149
▁telefoon	-11150
▁opleveren	-11151
▁tradition	-11152
▁gouverneur	-11153
▁satisfaire	-11154
▁verdwijnen	-11155
▁francophone	-11156
▁vrijgesteld	-11157
▁prioriteiten	-11158
chev	-11159
druk	-11160
extr	-11161
oeds	-11162
plac	-11163
agner	-11164
ansom	-11165
▁cash	-11166
▁cens	-11167
examin	-11168
worven	-11169
▁2.000	-11170
▁Celle	-11171
▁Concr	-11172
▁World	-11173
▁frapp	-11174
▁gross	-11175
ernieuw	-11176
uitvoer	-11177
▁brevet	-11178
leeftijd	-11179
▁hybride	-11180
▁mauvais	-11181
opleiding	-11182
volutions	-11183
▁dizaines	-11184
▁organiser	-11185
inscription	-11186
▁facilement	-11187
▁efficacement	-11188
▁instrumenten	-11189
Qu	-11190
zi	-11191
/00	-11192
oom	-11193
▁195	-11194
▁?4.	-11195
▁Sal	-11196
▁ais	-11197
▁hof	-11198
Parmi	-11199
cider	-11200
ulent	-11201
▁acte	-11202
▁moed	-11203
ainaut	-11204
itions	-11205
partij	-11206
▁dalen	-11207
▁oppos	-11208
▁hinder	-11209
▁lijken	-11210
▁taille	-11211
▁ventes	-11212
publique	-11213
▁gestuurd	-11214
▁getreden	-11215
quipements	-11216
attribution	-11217
importation	-11218
voorziening	-11219
▁vereniging	-11220
▁Afghanistan	-11221
▁aangeworven	-11222
▁interessant	-11223
▁professions	-11224
▁aanwervingen	-11225
▁doeltreffend	-11226
8)	-11227
RI	-11228
SB	-11229
ca	-11230
adh	-11231
▁Fe	-11232
aien	-11233
kracht	-11234
milieu	-11235
▁Bpost	-11236
▁overs	-11237
ciation	-11238
▁dreigt	-11239
▁saisie	-11240
▁aankond	-11241
▁locatie	-11242
▁Aangezien	-11243
▁proposent	-11244
▁potentieel	-11245
▁titulaires	-11246
▁vervanging	-11247
▁werkloosheid	-11248
▁jurisprudence	-11249
97	-11250
DO	-11251
xe	-11252
pil	-11253
▁Ie	-11254
bert	-11255
dies	-11256
neem	-11257
vacu	-11258
▁Som	-11259
outer	-11260
▁hang	-11261
lution	-11262
sentes	-11263
verbal	-11264
verlof	-11265
atrides	-11266
chement	-11267
interpr	-11268
tudiant	-11269
▁arrond	-11270
▁impose	-11271
▁telecom	-11272
▁afdeling	-11273
▁entendre	-11274
▁vrijheid	-11275
▁imposable	-11276
▁reconstru	-11277
belastingen	-11278
▁Organisatie	-11279
Ad	-11280
hav	-11281
rem	-11282
bbel	-11283
side	-11284
▁Jap	-11285
Afrika	-11286
chauff	-11287
handen	-11288
positie	-11289
voering	-11290
▁banden	-11291
explique	-11292
▁hypothe	-11293
▁sachant	-11294
▁operator	-11295
▁livraison	-11296
▁meerwaarde	-11297
▁onderdanen	-11298
bus	-11299
sum	-11300
▁52	-11301
oste	-11302
moign	-11303
▁porc	-11304
judice	-11305
leiden	-11306
nation	-11307
▁Rwand	-11308
▁ermee	-11309
▁match	-11310
plaatje	-11311
voerder	-11312
▁avocat	-11313
▁fiscus	-11314
▁maison	-11315
▁regist	-11316
▁rendus	-11317
▁Energie	-11318
▁gelijke	-11319
quipement	-11320
▁disposez	-11321
▁verzekerd	-11322
▁identiteit	-11323
▁werkelijke	-11324
▁Entreprises	-11325
interventions	-11326
▁gouvernements	-11327
▁noodzakelijke	-11328
orti	-11329
quat	-11330
vois	-11331
▁ade	-11332
▁kra	-11333
abatt	-11334
venue	-11335
▁suis	-11336
Binche	-11337
analys	-11338
hommes	-11339
udeerd	-11340
wapens	-11341
▁wenst	-11342
garande	-11343
▁abords	-11344
▁active	-11345
▁bonnes	-11346
▁fabric	-11347
▁gekost	-11348
▁juiste	-11349
▁revoir	-11350
komingen	-11351
▁2016?3.	-11352
▁adopter	-11353
▁mevrouw	-11354
exception	-11355
▁Philippe	-11356
▁uniforme	-11357
▁vervolgd	-11358
▁klassieke	-11359
▁importance	-11360
▁respectent	-11361
▁beveiligings	-11362
▁complaisance	-11363
▁beleidsdomein	-11364
Ex	-11365
stuk	-11366
▁loy	-11367
3.000	-11368
naire	-11369
olese	-11370
▁1999	-11371
▁ramp	-11372
▁vonn	-11373
▁witte	-11374
environ	-11375
▁Enkele	-11376
▁draagt	-11377
▁expuls	-11378
▁helaas	-11379
▁issues	-11380
▁moslim	-11381
▁nadere	-11382
▁concent	-11383
phoniques	-11384
quivalent	-11385
▁Courtrai	-11386
▁Migratie	-11387
▁register	-11388
▁industrie	-11389
▁patrimoni	-11390
▁sentiment	-11391
▁inrichting	-11392
uitwisseling	-11393
▁ondervinden	-11394
▁Commissariat	-11395
▁beantwoorden	-11396
▁hulpdiensten	-11397
▁voorafgaande	-11398
▁modernisation	-11399
▁voorgeschreven	-11400
EE	-11401
ja	-11402
sto	-11403
rabi	-11404
ries	-11405
limin	-11406
▁Post	-11407
▁wees	-11408
agence	-11409
status	-11410
▁bitco	-11411
▁index	-11412
▁liens	-11413
▁vingt	-11414
discipl	-11415
inscrit	-11416
▁radars	-11417
▁ongerust	-11418
▁prochain	-11419
exposition	-11420
liorations	-11421
▁commerces	-11422
▁duizenden	-11423
▁producenten	-11424
▁registreren	-11425
▁vaccination	-11426
▁bovenstaande	-11427
▁samengewerkt	-11428
▁beheerscontract	-11429
Ou	-11430
ju	-11431
vul	-11432
aande	-11433
eslag	-11434
▁deur	-11435
diende	-11436
▁2009,	-11437
▁zwart	-11438
Aankoop	-11439
tablies	-11440
vorming	-11441
▁jammer	-11442
▁concret	-11443
▁fondsen	-11444
▁maakten	-11445
▁opgelost	-11446
▁suspects	-11447
▁Transport	-11448
▁verbinten	-11449
▁afwachting	-11450
▁familiales	-11451
▁oefeningen	-11452
▁opgevangen	-11453
verenigingen	-11454
▁toepassingen	-11455
▁constatations	-11456
▁elektriciteit	-11457
▁mensensmokkel	-11458
▁accompagnateurs	-11459
Eur	-11460
oun	-11461
▁jo	-11462
aign	-11463
nose	-11464
rape	-11465
rime	-11466
▁ess	-11467
▁sud	-11468
grens	-11469
▁pact	-11470
▁baiss	-11471
▁gezag	-11472
plannen	-11473
quelles	-11474
▁Binche	-11475
▁Laurent	-11476
▁accompl	-11477
▁totalit	-11478
▁uniform	-11479
▁Belasting	-11480
▁naissance	-11481
▁provision	-11482
▁diagnostic	-11483
▁voorhanden	-11484
▁wetenschap	-11485
investissements	-11486
▁vooropgestelde	-11487
85	-11488
OCA	-11489
orp	-11490
▁Ap	-11491
embl	-11492
hygi	-11493
uime	-11494
▁bra	-11495
names	-11496
▁cant	-11497
▁hygi	-11498
▁suff	-11499
Achats	-11500
refour	-11501
▁Itali	-11502
▁horen	-11503
▁remis	-11504
gestemd	-11505
ongeval	-11506
▁duquel	-11507
▁minste	-11508
▁nagaan	-11509
▁vaakst	-11510
▁normaal	-11511
▁cellules	-11512
▁betalings	-11513
▁flamandes	-11514
▁ondergaan	-11515
▁stijgende	-11516
▁voorlopig	-11517
verordening	-11518
▁laattijdige	-11519
▁asielaanvraag	-11520
▁politiemensen	-11521
▁communications	-11522
-2020	-11523
isant	-11524
mails	-11525
onner	-11526
▁fout	-11527
aanval	-11528
chrift	-11529
giftes	-11530
▁Franc	-11531
▁ambts	-11532
▁drone	-11533
▁montr	-11534
▁perdu	-11535
ementen	-11536
prijzen	-11537
sidents	-11538
valuatie	-11539
▁bestemd	-11540
▁houding	-11541
▁provoqu	-11542
▁vergoed	-11543
Toutefois	-11544
gemeenten	-11545
houdingen	-11546
▁misdrijf	-11547
▁verouder	-11548
▁werklast	-11549
▁behoeften	-11550
▁opbrengst	-11551
▁controvers	-11552
▁stimuleren	-11553
▁suffisante	-11554
▁afwezigheid	-11555
▁djihadistes	-11556
▁perspective	-11557
▁plateformes	-11558
▁arrondissements	-11559
86	-11560
Men	-11561
bal	-11562
ovo	-11563
vak	-11564
dubb	-11565
eken	-11566
heen	-11567
Arabi	-11568
bouch	-11569
▁Arch	-11570
▁Vrij	-11571
aatste	-11572
enario	-11573
▁imput	-11574
▁rouge	-11575
Tijdens	-11576
blijven	-11577
ionnage	-11578
kelijke	-11579
▁Center	-11580
▁Koning	-11581
▁Museum	-11582
▁lossen	-11583
▁slotte	-11584
▁arriver	-11585
▁lecture	-11586
tionnelle	-11587
▁Allemagne	-11588
▁apatrides	-11589
▁combattre	-11590
▁cyclistes	-11591
▁nuisances	-11592
▁agressions	-11593
▁vrijwillig	-11594
▁contractuels	-11595
OMS	-11596
loof	-11597
prof	-11598
▁pij	-11599
▁Coll	-11600
▁Fisc	-11601
▁Krij	-11602
ennant	-11603
orings	-11604
pronil	-11605
unions	-11606
▁3.000	-11607
▁titel	-11608
anderen	-11609
▁auront	-11610
▁petite	-11611
▁vangen	-11612
▁volant	-11613
▁2015.1.	-11614
▁dividen	-11615
▁opzicht	-11616
▁ziekten	-11617
▁augmente	-11618
▁commande	-11619
▁externes	-11620
activiteit	-11621
▁gegarande	-11622
▁oorsprong	-11623
▁chercheurs	-11624
▁pendelaars	-11625
▁prioritaire	-11626
▁uitvoerings	-11627
▁LG	-11628
liss	-11629
▁Gal	-11630
▁The	-11631
▁moi	-11632
ismes	-11633
talie	-11634
zoals	-11635
▁Term	-11636
office	-11637
ranken	-11638
▁borst	-11639
▁firma	-11640
handels	-11641
volutie	-11642
winkels	-11643
▁geraad	-11644
▁lourds	-11645
▁partag	-11646
lijkbaar	-11647
vermelde	-11648
▁grootsch	-11649
▁vervolle	-11650
praktijken	-11651
▁pouvaient	-11652
▁redevance	-11653
▁sanitaire	-11654
▁toenemende	-11655
▁vreemdeling	-11656
.?	-11657
TO	-11658
ye	-11659
DVZ	-11660
Vil	-11661
Quel	-11662
ocus	-11663
RIZIV	-11664
▁diam	-11665
▁Train	-11666
▁capit	-11667
▁geres	-11668
animaux	-11669
funding	-11670
wekkend	-11671
▁etiket	-11672
▁futurs	-11673
▁practi	-11674
▁Dankzij	-11675
▁suivent	-11676
▁varkens	-11677
▁mobilier	-11678
▁sportifs	-11679
▁telewerk	-11680
▁aangiften	-11681
▁evolueren	-11682
▁musulmans	-11683
▁aangesteld	-11684
▁uitgesloten	-11685
▁uitsplitsen	-11686
▁alternatives	-11687
▁transposition	-11688
▁wetswijziging	-11689
▁volksgezondheid	-11690
44	-11691
77	-11692
;5.	-11693
bar	-11694
hoofd	-11695
inant	-11696
▁blok	-11697
▁cass	-11698
▁pakk	-11699
▁soir	-11700
▁task	-11701
▁2013?	-11702
▁geoor	-11703
Brabant	-11704
▁cambri	-11705
▁gagner	-11706
▁douanes	-11707
▁excessi	-11708
▁omgezet	-11709
▁domeinen	-11710
▁standard	-11711
▁Controles	-11712
▁overigens	-11713
▁participe	-11714
▁poursuite	-11715
vergoedingen	-11716
▁intercommun	-11717
▁veroorzaken	-11718
▁attributions	-11719
▁burgemeester	-11720
▁manifestement	-11721
▁inb	-11722
▁sla	-11723
islam	-11724
rabie	-11725
shift	-11726
▁LGBT	-11727
▁horm	-11728
oreign	-11729
pargne	-11730
▁Myria	-11731
adapter	-11732
horende	-11733
▁Nieuwe	-11734
▁bereik	-11735
▁laisse	-11736
▁schrap	-11737
examiner	-11738
▁agences	-11739
▁dotatie	-11740
▁estimez	-11741
▁raisonn	-11742
▁reserve	-11743
admission	-11744
ansomware	-11745
▁Registre	-11746
▁meegeven	-11747
mocratique	-11748
▁indiquant	-11749
▁verstuurd	-11750
orientation	-11751
dentificeerd	-11752
▁investering	-11753
▁maatschappelijk	-11754
83	-11755
Ge	-11756
nu	-11757
dod	-11758
usp	-11759
band	-11760
▁vot	-11761
aider	-11762
gaans	-11763
graag	-11764
iefst	-11765
Intern	-11766
oefend	-11767
▁2011.	-11768
▁frequ	-11769
▁massi	-11770
▁nomin	-11771
▁parle	-11772
▁sigar	-11773
inateur	-11774
▁congol	-11775
▁perron	-11776
▁inscrit	-11777
▁laisser	-11778
wdfunding	-11779
▁appropri	-11780
▁appliquer	-11781
quivalenten	-11782
▁voorleggen	-11783
▁persoonlijk	-11784
▁diplomatique	-11785
▁gespecialiseerd	-11786
abe	-11787
abot	-11788
ague	-11789
aies	-11790
gate	-11791
phes	-11792
turb	-11793
▁gly	-11794
Onder	-11795
agric	-11796
▁denr	-11797
▁feux	-11798
ageren	-11799
bercul	-11800
voquer	-11801
▁Heneg	-11802
▁hoedan	-11803
▁record	-11804
▁slagen	-11805
strijden	-11806
voorstel	-11807
▁majeure	-11808
▁profiel	-11809
▁winkels	-11810
▁candidat	-11811
▁lidstaat	-11812
vennootsch	-11813
▁Standaard	-11814
▁entrepris	-11815
▁structuur	-11816
▁travaillant	-11817
▁verschaffen	-11818
▁voorheffing	-11819
▁voorschriften	-11820
▁officiellement	-11821
jou	-11822
▁my	-11823
ests	-11824
till	-11825
▁Aar	-11826
▁kad	-11827
ribue	-11828
siers	-11829
livrer	-11830
▁racis	-11831
▁vende	-11832
ologues	-11833
▁erreur	-11834
▁versie	-11835
incident	-11836
▁absence	-11837
▁assimil	-11838
▁doordat	-11839
▁perturb	-11840
▁stijgen	-11841
akkoorden	-11842
▁Daardoor	-11843
▁opgepakt	-11844
▁existants	-11845
▁versement	-11846
▁wetgevend	-11847
▁suspension	-11848
▁signalement	-11849
▁Actuellement	-11850
▁ressortissant	-11851
▁gevangenisstraf	-11852
IVV	-11853
exc	-11854
sie	-11855
yer	-11856
Cela	-11857
tour	-11858
▁wit	-11859
actor	-11860
ersch	-11861
raire	-11862
▁Midd	-11863
▁ausp	-11864
▁luid	-11865
▁prin	-11866
aftrek	-11867
▁chefs	-11868
▁lundi	-11869
▁stadi	-11870
▁tafel	-11871
▁100.000	-11872
▁taalwet	-11873
instaurer	-11874
▁messages	-11875
▁culturele	-11876
▁ingevolge	-11877
▁verschenen	-11878
▁horecazaken	-11879
▁bruxelloises	-11880
▁geraadpleegd	-11881
▁hoedanigheid	-11882
▁kostenplaatje	-11883
▁Grondwettelijk	-11884
▁verblijfstitel	-11885
'.	-11886
65	-11887
gag	-11888
duid	-11889
▁160	-11890
.)?3.	-11891
▁klin	-11892
elders	-11893
valuez	-11894
▁Naast	-11895
▁duurt	-11896
▁ports	-11897
uurzame	-11898
▁concit	-11899
▁quelcon	-11900
▁revenir	-11901
▁steunen	-11902
▁gedeelte	-11903
▁indemnis	-11904
▁merkbaar	-11905
▁logiciels	-11906
▁multiples	-11907
▁placement	-11908
▁begeleiden	-11909
▁overlijden	-11910
▁transmises	-11911
▁laboratoires	-11912
▁verklaringen	-11913
▁49	-11914
▁77	-11915
▁Da	-11916
▁ON	-11917
geen	-11918
utte	-11919
2.000	-11920
aleer	-11921
oenen	-11922
▁cess	-11923
▁soup	-11924
oneels	-11925
▁bient	-11926
▁opzet	-11927
digheid	-11928
rusting	-11929
▁Syndic	-11930
▁keurde	-11931
▁suscit	-11932
▁tardif	-11933
functies	-11934
pendante	-11935
▁compati	-11936
▁gronden	-11937
▁imposer	-11938
▁leiding	-11939
▁oplopen	-11940
arbeiders	-11941
iliteiten	-11942
▁gebruiks	-11943
▁vermogen	-11944
▁Congolese	-11945
▁accijnzen	-11946
▁continuent	-11947
▁gepensione	-11948
▁aandoeningen	-11949
▁mensenhandel	-11950
▁gedetailleerde	-11951
▁verblijfsrecht	-11952
▁CB	-11953
▁IN	-11954
▁SE	-11955
abus	-11956
ilis	-11957
▁gok	-11958
▁pic	-11959
kkers	-11960
▁Mont	-11961
▁medi	-11962
▁quin	-11963
agisse	-11964
plegen	-11965
tentes	-11966
▁dader	-11967
ellicht	-11968
oujours	-11969
▁expert	-11970
▁hoewel	-11971
▁offrir	-11972
▁restre	-11973
vangenis	-11974
▁Hainaut	-11975
▁absolus	-11976
▁herstel	-11977
▁plaatsv	-11978
▁vakbond	-11979
▁examiner	-11980
▁stockage	-11981
▁verlaagd	-11982
▁munitions	-11983
▁opgelegde	-11984
▁immatricul	-11985
▁introduite	-11986
▁transferts	-11987
▁verminderd	-11988
asielzoekers	-11989
CP	-11990
kse	-11991
top	-11992
▁59	-11993
▁ec	-11994
ible	-11995
iner	-11996
zins	-11997
▁fic	-11998
drukt	-11999
ospit	-12000
▁Ziet	-12001
▁beleg	-12002
▁boods	-12003
▁opget	-12004
▁pirat	-12005
▁roept	-12006
oederen	-12007
preuves	-12008
▁Hoever	-12009
▁Kosovo	-12010
▁behoud	-12011
▁doorst	-12012
▁enorme	-12013
▁adapter	-12014
▁expliqu	-12015
▁globaal	-12016
▁uitzend	-12017
bevolking	-12018
▁estiment	-12019
▁faillite	-12020
▁ontvingen	-12021
▁raadplegen	-12022
▁uitwerking	-12023
▁veranderen	-12024
▁applicables	-12025
▁humanitaires	-12026
▁initialement	-12027
overschrijdende	-12028
▁.	-12029
▁69	-12030
cite	-12031
grad	-12032
rice	-12033
▁inj	-12034
▁oud	-12035
crime	-12036
opers	-12037
▁Pass	-12038
▁ooit	-12039
gedrag	-12040
▁Kruis	-12041
▁Trump	-12042
▁advis	-12043
▁avais	-12044
▁label	-12045
▁prins	-12046
annonce	-12047
pleging	-12048
▁herinn	-12049
▁incarc	-12050
tiviteit	-12051
▁message	-12052
▁passant	-12053
▁collecte	-12054
▁bijkomend	-12055
▁hechtenis	-12056
▁kwetsbare	-12057
▁overleden	-12058
▁commercial	-12059
▁Constitution	-12060
▁licenciement	-12061
departementale	-12062
▁bestuurszaken	-12063
▁georganiseerde	-12064
TIP	-12065
nit	-12066
feer	-12067
ziet	-12068
Ordre	-12069
leerd	-12070
milit	-12071
monde	-12072
raden	-12073
▁exig	-12074
▁nord	-12075
▁onth	-12076
honden	-12077
patrie	-12078
voorde	-12079
▁Volks	-12080
▁benad	-12081
▁gecon	-12082
▁grade	-12083
▁progr	-12084
▁verwe	-12085
antwoor	-12086
cheques	-12087
▁adoles	-12088
▁museum	-12089
▁opmaak	-12090
besturen	-12091
houdende	-12092
ologisch	-12093
waardige	-12094
▁behoort	-12095
▁maandag	-12096
▁opleggen	-12097
▁voordoen	-12098
informatie	-12099
▁croissant	-12100
▁getrokken	-12101
▁concitoyens	-12102
▁diefstallen	-12103
▁instructies	-12104
▁consentement	-12105
▁connaissances	-12106
▁interpretatie	-12107
▁penitentiaire	-12108
SPF	-12109
�;-	-12110
digt	-12111
▁Ven	-12112
▁jeu	-12113
diter	-12114
eland	-12115
▁NBMV	-12116
▁page	-12117
attent	-12118
ieters	-12119
normen	-12120
gangers	-12121
▁corpor	-12122
▁interf	-12123
▁levert	-12124
▁objets	-12125
▁speelt	-12126
huwelijk	-12127
lectionn	-12128
▁2014?3.	-12129
▁archite	-12130
▁collect	-12131
▁emprunt	-12132
▁parcour	-12133
▁profils	-12134
gociation	-12135
▁noodzaak	-12136
▁vakbonds	-12137
loignement	-12138
▁dimension	-12139
▁disposant	-12140
▁innovatie	-12141
▁ontbreken	-12142
▁transform	-12143
▁violation	-12144
▁menselijke	-12145
▁toegekende	-12146
▁alternative	-12147
▁voorafgaand	-12148
41	-12149
TCS	-12150
▁-�	-12151
atri	-12152
▁Ons	-12153
▁Wel	-12154
▁ign	-12155
▁lev	-12156
avons	-12157
erves	-12158
▁Mich	-12159
▁noir	-12160
▁phot	-12161
▁plen	-12162
▁util	-12163
▁Eupen	-12164
Brussel	-12165
daction	-12166
dossier	-12167
gericht	-12168
plement	-12169
▁Integr	-12170
▁option	-12171
▁contest	-12172
▁gedrang	-12173
▁stukken	-12174
▁Invester	-12175
ralisation	-12176
▁aanpassen	-12177
▁festivals	-12178
▁orientale	-12179
▁recourent	-12180
werkverkeer	-12181
▁Henegouwen	-12182
▁chronische	-12183
▁rembourser	-12184
entrepreneur	-12185
▁bourgmestre	-12186
VS	-12187
bele	-12188
obby	-12189
perk	-12190
uant	-12191
▁Mag	-12192
Alert	-12193
nance	-12194
▁Unit	-12195
▁agro	-12196
▁speel	-12197
▁taxes	-12198
▁Consid	-12199
▁attach	-12200
▁vielen	-12201
▁Vandaag	-12202
▁beschul	-12203
▁contient	-12204
▁faudrait	-12205
▁fipronil	-12206
▁samenwon	-12207
▁taxation	-12208
▁pharmaceu	-12209
▁satisfait	-12210
▁scolaires	-12211
▁combinatie	-12212
▁homologues	-12213
▁publiceerde	-12214
▁gebruikmaken	-12215
▁participants	-12216
▁correspondance	-12217
▁Sh	-12218
esty	-12219
▁roi	-12220
otten	-12221
prest	-12222
schap	-12223
steun	-12224
gangen	-12225
making	-12226
▁Techn	-12227
▁quasi	-12228
▁spect	-12229
▁tabel	-12230
ecurity	-12231
▁choses	-12232
▁connus	-12233
▁voorge	-12234
aatregel	-12235
▁2015?3.	-12236
berculose	-12237
formulier	-12238
▁Centrale	-12239
▁aandelen	-12240
▁filiales	-12241
▁ingevuld	-12242
▁comptable	-12243
▁visiteurs	-12244
▁directeurs	-12245
▁mouvements	-12246
▁opgeroepen	-12247
▁assistentie	-12248
▁nummerplaat	-12249
▁uitgevaardigd	-12250
29	-12251
▁04	-12252
actu	-12253
fase	-12254
inen	-12255
otor	-12256
▁Don	-12257
▁Hal	-12258
▁tru	-12259
▁zak	-12260
intig	-12261
▁bact	-12262
amende	-12263
ciales	-12264
dienen	-12265
▁5.000	-12266
▁actif	-12267
▁agent	-12268
▁nabij	-12269
▁lessen	-12270
▁posten	-12271
▁schepen	-12272
▁spreekt	-12273
▁cambriol	-12274
▁centaines	-12275
▁reprenant	-12276
encadrement	-12277
▁afgesproken	-12278
▁certificats	-12279
▁commerciale	-12280
▁transaction	-12281
▁Samenwerking	-12282
▁prolongation	-12283
▁faillissement	-12284
▁indemnisation	-12285
▁voorbereiding	-12286
▁elektriciteits	-12287
▁progressivement	-12288
87	-12289
MR	-12290
Tot	-12291
pan	-12292
upe	-12293
via	-12294
Mais	-12295
▁Pal	-12296
▁tom	-12297
ambul	-12298
blijf	-12299
tache	-12300
▁gard	-12301
▁wiss	-12302
chting	-12303
▁fuite	-12304
ressant	-12305
▁Toutes	-12306
canismes	-12307
▁grondig	-12308
▁missies	-12309
▁partant	-12310
▁stoppen	-12311
▁appareil	-12312
▁manieren	-12313
▁collectif	-12314
▁conserver	-12315
▁reconnues	-12316
▁deelstaten	-12317
▁doeleinden	-12318
▁opgeleverd	-12319
▁passagiers	-12320
▁catastrophe	-12321
▁conseillers	-12322
▁subventions	-12323
▁uitgeoefend	-12324
▁Infrastructuur	-12325
▁sensibiliseren	-12326
▁cyberveiligheid	-12327
%.	-12328
AI	-12329
PR	-12330
Ant	-12331
oet	-12332
date	-12333
erst	-12334
sche	-12335
verz	-12336
▁BBI	-12337
▁Har	-12338
hters	-12339
▁imag	-12340
▁path	-12341
▁veld	-12342
ctuele	-12343
▁behoe	-12344
▁betal	-12345
▁coeur	-12346
▁risic	-12347
▁spont	-12348
avaient	-12349
handeld	-12350
iedenis	-12351
istoire	-12352
sverlof	-12353
▁Groupe	-12354
▁Moeten	-12355
▁Observe	-12356
▁anderen	-12357
▁derhalve	-12358
▁herhaald	-12359
▁hernieuw	-12360
▁plenaire	-12361
▁zichzelf	-12362
▁benoeming	-12363
▁chirurgie	-12364
▁dirigeants	-12365
▁contractuele	-12366
▁prioritaires	-12367
▁hulpverlening	-12368
BSR	-12369
loy	-12370
pid	-12371
▁Sk	-12372
▁III	-12373
▁bic	-12374
▁gros	-12375
▁meth	-12376
ionage	-12377
posten	-12378
venues	-12379
werven	-12380
▁Groot	-12381
▁Human	-12382
▁Neemt	-12383
▁haute	-12384
▁manip	-12385
▁daarna	-12386
▁geboor	-12387
▁moteur	-12388
▁recrut	-12389
moedigen	-12390
▁beelden	-12391
▁juridic	-12392
▁ontdekt	-12393
▁relatie	-12394
▁streven	-12395
▁veilige	-12396
▁geschikt	-12397
▁toenemen	-12398
▁vergader	-12399
▁verzeker	-12400
▁moyennant	-12401
▁nettement	-12402
▁versterkt	-12403
utilisateur	-12404
▁gerepatrie	-12405
▁introduits	-12406
▁uitspraken	-12407
▁bijgehouden	-12408
▁hervormingen	-12409
▁verzekeringen	-12410
▁vereenvoudiging	-12411
FOD	-12412
beh	-12413
rel	-12414
▁95	-12415
▁Bi	-12416
▁Ko	-12417
gaat	-12418
impl	-12419
kost	-12420
▁ali	-12421
▁Taal	-12422
▁afst	-12423
▁hoof	-12424
renzen	-12425
▁Zwits	-12426
▁deden	-12427
▁hangt	-12428
▁ramen	-12429
▁scann	-12430
▁FEDCOM	-12431
▁elders	-12432
▁images	-12433
▁listes	-12434
▁normal	-12435
▁trajets	-12436
schriften	-12437
▁liaisons	-12438
▁moyennes	-12439
▁transgen	-12440
▁verwijst	-12441
innovation	-12442
▁geschrapt	-12443
▁aangekocht	-12444
▁activement	-12445
▁pleinement	-12446
▁ransomware	-12447
▁geneesmiddel	-12448
▁contributions	-12449
intr	-12450
▁BNP	-12451
▁CCB	-12452
atien	-12453
▁Komt	-12454
▁pare	-12455
▁tort	-12456
anches	-12457
ishing	-12458
nissen	-12459
ruimte	-12460
diateur	-12461
horizon	-12462
▁Afrika	-12463
▁Mensen	-12464
▁finale	-12465
▁geloof	-12466
bijstand	-12467
▁geldige	-12468
▁ouderen	-12469
▁volgend	-12470
elateerde	-12471
programme	-12472
▁Centraal	-12473
▁actualis	-12474
▁allerlei	-12475
▁entreten	-12476
▁ramingen	-12477
▁techniek	-12478
▁tevreden	-12479
▁arguments	-12480
▁mentionne	-12481
▁onroerend	-12482
▁Maatschapp	-12483
▁confidenti	-12484
▁quelconque	-12485
▁populations	-12486
▁bovenvermelde	-12487
▁ticketautomaten	-12488
61	-12489
▁73	-12490
Cert	-12491
iert	-12492
iltr	-12493
▁GEN	-12494
▁ran	-12495
nstal	-12496
siden	-12497
▁Tout	-12498
▁Vias	-12499
▁trac	-12500
biljet	-12501
iaanse	-12502
▁Voeds	-12503
▁doden	-12504
▁remer	-12505
▁weder	-12506
welzijn	-12507
▁dubbel	-12508
▁majeur	-12509
▁winter	-12510
geroepen	-12511
omgeving	-12512
▁overweg	-12513
▁soldats	-12514
▁communal	-12515
▁comprend	-12516
▁geslaagd	-12517
▁machines	-12518
▁voyageur	-12519
▁wetgever	-12520
▁annuelles	-12521
▁continent	-12522
▁efficaces	-12523
▁gebruiker	-12524
▁homologue	-12525
▁immeubles	-12526
▁percevoir	-12527
▁uitwerken	-12528
onderzoeken	-12529
vriendelijk	-12530
▁Dendermonde	-12531
▁laboratoire	-12532
▁explications	-12533
▁remboursements	-12534
wed	-12535
avais	-12536
cence	-12537
▁Twee	-12538
▁anon	-12539
▁atta	-12540
▁link	-12541
▁suik	-12542
Daarom	-12543
lector	-12544
▁codes	-12545
▁onbet	-12546
▁parfa	-12547
▁puiss	-12548
gatives	-12549
viendra	-12550
▁Crimin	-12551
▁Genees	-12552
▁detach	-12553
▁ingaan	-12554
▁portes	-12555
▁stages	-12556
▁veille	-12557
iliation	-12558
▁genoemd	-12559
▁prendra	-12560
▁beginnen	-12561
▁gerichte	-12562
espionnage	-12563
▁approfond	-12564
▁assureurs	-12565
▁formulier	-12566
▁syndicale	-12567
▁toekennen	-12568
▁Electrabel	-12569
▁Staatlozen	-12570
▁praktische	-12571
▁parfaitement	-12572
▁waarschijnlijk	-12573
88	-12574
ya	-12575
Cet	-12576
ark	-12577
uti	-12578
▁1�	-12579
IBSR	-12580
pill	-12581
▁Ele	-12582
▁Mes	-12583
beurd	-12584
model	-12585
tendu	-12586
▁Orde	-12587
▁demi	-12588
▁hart	-12589
manant	-12590
anteren	-12591
gelicht	-12592
▁exhaus	-12593
deurwaar	-12594
▁protest	-12595
Integraal	-12596
gislateur	-12597
kredieten	-12598
uthanasie	-12599
▁accorder	-12600
▁exercent	-12601
▁voorkeur	-12602
▁commenter	-12603
lachtoffers	-12604
▁retrouvent	-12605
▁cohabitation	-12606
▁gemeenschaps	-12607
▁recrutements	-12608
▁veroordeelde	-12609
▁problematisch	-12610
63	-12611
Ten	-12612
uun	-12613
▁2�	-12614
pact	-12615
plor	-12616
ueux	-12617
▁pou	-12618
▁rig	-12619
nesty	-12620
orven	-12621
▁wijk	-12622
kraine	-12623
▁overt	-12624
▁pleit	-12625
acteurs	-12626
conflic	-12627
niveaus	-12628
ondslag	-12629
▁Albert	-12630
▁Grande	-12631
▁orgaan	-12632
▁tabaks	-12633
mplement	-12634
▁geboden	-12635
▁meisjes	-12636
▁partage	-12637
▁shelter	-12638
accompagn	-12639
organisme	-12640
▁bewaking	-12641
▁remettre	-12642
documenten	-12643
▁aanpakken	-12644
▁individus	-12645
▁navolging	-12646
▁opgelopen	-12647
▁criminelen	-12648
▁landbouwers	-12649
▁ambulanciers	-12650
▁exportations	-12651
▁financierings	-12652
▁gebeurtenissen	-12653
PC	-12654
ups	-12655
dans	-12656
gels	-12657
sive	-12658
▁Tro	-12659
adame	-12660
asten	-12661
ities	-12662
ultur	-12663
▁Burk	-12664
▁dead	-12665
▁dier	-12666
ageerd	-12667
aurait	-12668
begrip	-12669
dreven	-12670
▁Plant	-12671
▁morts	-12672
akelings	-12673
▁cijferm	-12674
▁dienden	-12675
▁fournis	-12676
▁garanti	-12677
▁verloop	-12678
▁voogdij	-12679
tegenwoor	-12680
▁geraamde	-12681
▁industri	-12682
▁investir	-12683
▁recueill	-12684
▁evolueert	-12685
▁reprendre	-12686
▁vooraleer	-12687
exportation	-12688
▁mentionner	-12689
▁stiptheids	-12690
▁verwijderd	-12691
▁programmation	-12692
FI	-12693
QT	-12694
sig	-12695
▁6,	-12696
▁DIV	-12697
▁Ham	-12698
akeld	-12699
hensi	-12700
ifier	-12701
▁brug	-12702
▁club	-12703
▁intr	-12704
▁voix	-12705
bezoek	-12706
phonie	-12707
sences	-12708
stalig	-12709
werker	-12710
▁gemen	-12711
▁macht	-12712
▁choisi	-12713
▁lokaal	-12714
structur	-12715
▁evenals	-12716
▁retourn	-12717
zettingen	-12718
▁Duurzame	-12719
▁Termonde	-12720
▁misschien	-12721
▁werkwijze	-12722
handelingen	-12723
▁gevaarlijk	-12724
mplementeerd	-12725
▁britannique	-12726
▁liquidation	-12727
▁onderhouden	-12728
▁onderzoekers	-12729
▁vertegenwoor	-12730
EL	-12731
OS	-12732
UN	-12733
my	-12734
don	-12735
lux	-12736
nat	-12737
omy	-12738
▁AR	-12739
▁700	-12740
▁RER	-12741
▁cop	-12742
tiste	-12743
▁Ceux	-12744
▁ajus	-12745
▁meet	-12746
aissez	-12747
avance	-12748
invent	-12749
roegen	-12750
uiting	-12751
▁2020.	-12752
▁Jusqu	-12753
▁dites	-12754
▁paris	-12755
▁destru	-12756
zakelijk	-12757
▁Aujourd	-12758
▁comport	-12759
▁culture	-12760
▁signaux	-12761
ntegreerd	-12762
wijzingen	-12763
▁diabetes	-12764
▁retenues	-12765
▁wellicht	-12766
▁allemande	-12767
▁retrouver	-12768
▁solidarit	-12769
▁termijnen	-12770
▁tentatives	-12771
▁persbericht	-12772
▁structureel	-12773
▁certainement	-12774
▁crowdfunding	-12775
▁tegenstelling	-12776
det	-12777
olf	-12778
▁64	-12779
?11.	-12780
atig	-12781
tijn	-12782
jarig	-12783
▁Libi	-12784
▁hoop	-12785
▁rook	-12786
▁vite	-12787
chelen	-12788
iceert	-12789
ontwik	-12790
▁fiche	-12791
▁probe	-12792
▁raken	-12793
kaartje	-12794
quentes	-12795
▁piloot	-12796
▁recycl	-12797
▁wetten	-12798
rachtens	-12799
rogation	-12800
▁civiele	-12801
▁groeien	-12802
▁versche	-12803
▁voeding	-12804
preventie	-12805
▁abattoir	-12806
▁factoren	-12807
▁dentistes	-12808
▁kredieten	-12809
▁pollution	-12810
▁consultants	-12811
▁islamitische	-12812
▁renouvellement	-12813
MA	-12814
HCR	-12815
kere	-12816
ness	-12817
uler	-12818
cepte	-12819
ligne	-12820
missi	-12821
tiens	-12822
▁BIPT	-12823
▁Pari	-12824
▁Sont	-12825
▁rues	-12826
▁surf	-12827
▁vrai	-12828
▁wind	-12829
▁opeen	-12830
jarigen	-12831
treinen	-12832
▁afloop	-12833
▁kansen	-12834
▁overst	-12835
▁vermin	-12836
▁Paribas	-12837
▁choisir	-12838
▁hoogste	-12839
▁munitie	-12840
▁statuts	-12841
vestiging	-12842
▁pensionn	-12843
▁reageren	-12844
▁talrijke	-12845
▁taxshift	-12846
▁vastgoed	-12847
▁vroegere	-12848
nstalleerd	-12849
▁conformes	-12850
▁indiquiez	-12851
▁strafbaar	-12852
▁belastbaar	-12853
alimentation	-12854
finitivement	-12855
▁verwezenlijk	-12856
▁blootstelling	-12857
52	-12858
62	-12859
wn	-12860
mol	-12861
zee	-12862
▁41	-12863
opin	-12864
tape	-12865
▁11.	-12866
▁35,	-12867
▁Amb	-12868
▁SWT	-12869
▁Val	-12870
▁nie	-12871
6.000	-12872
dogan	-12873
quels	-12874
rieux	-12875
▁Verk	-12876
judici	-12877
ulatie	-12878
▁2010?	-12879
▁bezet	-12880
▁river	-12881
autonom	-12882
illende	-12883
tenance	-12884
tiveerd	-12885
▁25.000	-12886
▁explos	-12887
▁fouten	-12888
▁jouets	-12889
▁liefst	-12890
▁valoir	-12891
ancienne	-12892
uitgaven	-12893
▁College	-12894
▁details	-12895
▁dreigen	-12896
gislative	-12897
installer	-12898
▁Partagez	-12899
▁concentr	-12900
▁scenario	-12901
▁2010-2015	-12902
▁consensus	-12903
▁realiteit	-12904
▁Bijzondere	-12905
▁composante	-12906
▁consulaire	-12907
▁rencontrer	-12908
▁verdedigen	-12909
▁disparition	-12910
▁gedragscode	-12911
▁tussenkomst	-12912
▁ziekenfonds	-12913
▁multidiscipl	-12914
▁behandelingen	-12915
▁psychosociale	-12916
NS	-12917
▁Ju	-12918
diat	-12919
erij	-12920
rome	-12921
stek	-12922
umes	-12923
auche	-12924
▁Hulp	-12925
▁pijn	-12926
▁sauf	-12927
▁Actie	-12928
▁artif	-12929
▁bonus	-12930
▁dissu	-12931
parties	-12932
verzuim	-12933
▁2010?2.	-12934
▁Burkina	-12935
▁convers	-12936
▁polices	-12937
rification	-12938
▁diffusion	-12939
▁aandoening	-12940
▁bespreking	-12941
▁woonplaats	-12942
contractueel	-12943
administratie	-12944
▁nummerplaten	-12945
▁verwijdering	-12946
Mal	-12947
aso	-12948
nag	-12949
▁CD	-12950
gile	-12951
vaux	-12952
▁San	-12953
▁dak	-12954
▁dos	-12955
▁pan	-12956
▁rit	-12957
amine	-12958
faill	-12959
gypte	-12960
▁Faso	-12961
▁onre	-12962
cepter	-12963
tieven	-12964
▁1.500	-12965
▁Journ	-12966
▁Scien	-12967
▁bezol	-12968
iefstal	-12969
▁Versch	-12970
▁bicycl	-12971
▁rollen	-12972
Europese	-12973
uitement	-12974
▁betwist	-12975
▁syriens	-12976
▁utilise	-12977
bergement	-12978
▁positifs	-12979
▁produire	-12980
▁remercie	-12981
▁entretien	-12982
▁mouvement	-12983
▁vestiging	-12984
▁volwassen	-12985
▁werkelijk	-12986
▁dagelijkse	-12987
▁ondersteund	-12988
organisations	-12989
▁ministerieel	-12990
▁gerepatrieerd	-12991
▁arbeidshandicap	-12992
84	-12993
aai	-12994
Bien	-12995
aang	-12996
argo	-12997
ghem	-12998
ocol	-12999
ture	-13000
▁Mil	-13001
▁opt	-13002
taken	-13003
▁Jord	-13004
▁bekw	-13005
▁stof	-13006
iseurs	-13007
▁2007,	-13008
▁amper	-13009
▁chose	-13010
▁pollu	-13011
▁vervu	-13012
commiss	-13013
pertori	-13014
tissent	-13015
▁couver	-13016
▁hetzij	-13017
▁payant	-13018
Pourtant	-13019
criteria	-13020
▁lichaam	-13021
▁options	-13022
▁soulign	-13023
▁critique	-13024
▁internes	-13025
▁attendant	-13026
▁bijberoep	-13027
ingssysteem	-13028
institution	-13029
▁omschreven	-13030
▁vertrouwen	-13031
▁voormalige	-13032
financiering	-13033
▁apparemment	-13034
▁hoeveelheid	-13035
▁aangetroffen	-13036
▁partnerlanden	-13037
▁Overeenkomstig	-13038
82	-13039
CS	-13040
GP	-13041
ino	-13042
"?2.	-13043
96/0	-13044
iris	-13045
stan	-13046
Vlaam	-13047
explo	-13048
ficit	-13049
titul	-13050
▁1991	-13051
▁Noor	-13052
▁synt	-13053
▁zwak	-13054
alarme	-13055
ertijd	-13056
okters	-13057
opport	-13058
▁Geens	-13059
▁frein	-13060
▁gewag	-13061
▁ieder	-13062
▁reage	-13063
▁sympt	-13064
▁talen	-13065
▁zetel	-13066
▁diende	-13067
▁exerce	-13068
▁future	-13069
aliments	-13070
situatie	-13071
▁Institu	-13072
▁changer	-13073
▁disting	-13074
▁preuves	-13075
▁stonden	-13076
exclusion	-13077
▁circuler	-13078
▁gardiens	-13079
▁demandant	-13080
▁evoluties	-13081
▁territori	-13082
▁verlaging	-13083
▁consumptie	-13084
▁effectuent	-13085
▁pharmaciens	-13086
▁pluriannuel	-13087
ingsprocedure	-13088
▁gestionnaire	-13089
▁publications	-13090
LA	-13091
Te	-13092
400	-13093
jeu	-13094
▁81	-13095
tonn	-13096
▁Spe	-13097
▁adh	-13098
�?5.	-13099
ciaux	-13100
▁Mijn	-13101
fendre	-13102
keting	-13103
▁Ander	-13104
▁beval	-13105
▁cland	-13106
▁solde	-13107
▁versn	-13108
akeling	-13109
implant	-13110
▁Voorts	-13111
▁mobiel	-13112
▁nadien	-13113
▁plegen	-13114
▁roepen	-13115
▁engendr	-13116
▁espaces	-13117
▁facteur	-13118
vankelijk	-13119
▁contamin	-13120
▁dreiging	-13121
▁existant	-13122
▁geboorte	-13123
▁hanteren	-13124
appliquent	-13125
▁daarnaast	-13126
▁doelgroep	-13127
▁beschreven	-13128
▁uitgekeerd	-13129
▁Consumenten	-13130
▁erediensten	-13131
▁frontaliers	-13132
▁publicaties	-13133
▁gratuitement	-13134
▁planification	-13135
▁regeringsleden	-13136
▁vervollediging	-13137
HI	-13138
ald	-13139
▁Tw	-13140
Afin	-13141
anen	-13142
teit	-13143
▁Aux	-13144
▁zat	-13145
herap	-13146
uitst	-13147
visie	-13148
▁brom	-13149
▁curs	-13150
▁raak	-13151
▁Grand	-13152
▁raden	-13153
leveurs	-13154
▁accrue	-13155
▁consci	-13156
▁licham	-13157
▁caserne	-13158
▁finalis	-13159
▁kaarten	-13160
▁langere	-13161
▁materie	-13162
▁origine	-13163
▁premies	-13164
cologique	-13165
▁fighters	-13166
▁overbren	-13167
▁overname	-13168
▁restruct	-13169
handelaars	-13170
judication	-13171
▁dotations	-13172
▁vacatures	-13173
▁vereisten	-13174
▁conseiller	-13175
▁essentieel	-13176
erlandophone	-13177
▁aangerekend	-13178
▁comptabilit	-13179
▁installeren	-13180
▁samenwerken	-13181
mogelijkheden	-13182
▁ministerraad	-13183
▁perspectives	-13184
▁beschikbaarheid	-13185
):	-13186
RC	-13187
amm	-13188
rikt	-13189
▁Mog	-13190
▁vru	-13191
bomen	-13192
danig	-13193
▁Soed	-13194
▁baan	-13195
▁dons	-13196
▁eeuw	-13197
▁mits	-13198
apende	-13199
erapie	-13200
tionele	-13201
▁groene	-13202
▁havens	-13203
aanvaard	-13204
ressieve	-13205
▁Europol	-13206
▁fausses	-13207
▁mandats	-13208
▁voortvl	-13209
appareils	-13210
rijvingen	-13211
verhoging	-13212
▁justifie	-13213
▁maternit	-13214
▁mauvaise	-13215
▁periodes	-13216
▁proberen	-13217
alablement	-13218
alistische	-13219
▁langdurig	-13220
▁werkdagen	-13221
percussions	-13222
▁nauwelijks	-13223
▁tandartsen	-13224
▁uitbetaling	-13225
▁conservation	-13226
▁geografische	-13227
▁treinverkeer	-13228
▁voorgestelde	-13229
lib	-13230
ork	-13231
▁IV	-13232
ilat	-13233
mars	-13234
pand	-13235
uste	-13236
aband	-13237
domad	-13238
inken	-13239
nario	-13240
▁Blue	-13241
▁Deux	-13242
▁noms	-13243
▁scru	-13244
▁stak	-13245
esters	-13246
largir	-13247
ponent	-13248
studie	-13249
▁2019?	-13250
▁Group	-13251
▁accou	-13252
Pieters	-13253
stukken	-13254
ziekten	-13255
▁avenir	-13256
▁german	-13257
▁quatri	-13258
▁gevaren	-13259
▁vaccins	-13260
onnements	-13261
▁atteinte	-13262
▁saoudite	-13263
integratie	-13264
▁autonomie	-13265
▁eigenaars	-13266
▁ingenomen	-13267
▁riverains	-13268
▁cigarettes	-13269
▁opgeslagen	-13270
▁Ombudsdienst	-13271
▁afzonderlijk	-13272
▁automatische	-13273
▁grootschalige	-13274
▁10.	-13275
▁cos	-13276
▁tat	-13277
Saint	-13278
curis	-13279
lines	-13280
olang	-13281
verse	-13282
▁arme	-13283
▁fera	-13284
▁fors	-13285
ategie	-13286
merken	-13287
▁oneer	-13288
▁russe	-13289
▁speci	-13290
▁verko	-13291
▁overle	-13292
Turnhout	-13293
▁Rechten	-13294
▁houdend	-13295
▁humaine	-13296
▁ingesch	-13297
▁marques	-13298
Aangezien	-13299
Antwerpen	-13300
oordeling	-13301
▁Situatie	-13302
▁aliments	-13303
▁erkennen	-13304
▁gecommun	-13305
▁huisarts	-13306
▁journaux	-13307
▁rechters	-13308
▁vendredi	-13309
▁communaux	-13310
▁conclusie	-13311
▁profielen	-13312
▁toegevoegd	-13313
largissement	-13314
▁opgetrokken	-13315
▁participent	-13316
▁provisoires	-13317
▁politierecht	-13318
▁gedetailleerd	-13319
▁verbeteringen	-13320
43	-13321
anz	-13322
kam	-13323
lot	-13324
uil	-13325
▁Ga	-13326
alig	-13327
ases	-13328
ordi	-13329
wijf	-13330
▁PPI	-13331
▁Ser	-13332
▁bot	-13333
▁ton	-13334
gisch	-13335
indic	-13336
praak	-13337
vante	-13338
▁Leef	-13339
▁inac	-13340
chanis	-13341
licopt	-13342
ologen	-13343
posent	-13344
tentie	-13345
ulaire	-13346
ustral	-13347
▁aanre	-13348
▁achev	-13349
cessite	-13350
▁Elektr	-13351
▁bewind	-13352
▁voelen	-13353
adresser	-13354
apporter	-13355
ourgeois	-13356
▁begeven	-13357
▁convain	-13358
▁ervaren	-13359
▁logisch	-13360
▁offerte	-13361
▁valeurs	-13362
▁validit	-13363
▁zelfdod	-13364
veiliging	-13365
▁adresser	-13366
▁haalbaar	-13367
▁incendie	-13368
▁uitstoot	-13369
▁betekenen	-13370
▁defibrill	-13371
▁schikking	-13372
▁titulaire	-13373
▁toepassen	-13374
▁tardivement	-13375
▁postdiensten	-13376
▁stopplaatsen	-13377
▁Administratie	-13378
▁onduidelijkheid	-13379
51	-13380
AD	-13381
Log	-13382
hyp	-13383
lee	-13384
▁KU	-13385
Conc	-13386
bler	-13387
trac	-13388
▁750	-13389
▁lie	-13390
Enfin	-13391
clubs	-13392
kkige	-13393
▁farm	-13394
▁flag	-13395
▁haat	-13396
▁verj	-13397
certif	-13398
▁Crime	-13399
▁mutil	-13400
▁savez	-13401
ections	-13402
verstre	-13403
▁clarif	-13404
▁letter	-13405
▁servir	-13406
▁zwarte	-13407
ducation	-13408
wekkende	-13409
▁Afrique	-13410
▁Station	-13411
▁camions	-13412
▁commenc	-13413
▁devient	-13414
▁oefenen	-13415
▁onregel	-13416
▁spelers	-13417
influence	-13418
nagements	-13419
▁abandonn	-13420
▁provisie	-13421
▁stabilit	-13422
▁afgenomen	-13423
▁besparing	-13424
▁onterecht	-13425
▁vermoeden	-13426
veiligheids	-13427
▁beoordeelt	-13428
▁leerlingen	-13429
▁mannelijke	-13430
▁traditionn	-13431
▁concertations	-13432
▁quotidiennement	-13433
71	-13434
GO	-13435
Gel	-13436
dro	-13437
gas	-13438
mor	-13439
oux	-13440
yan	-13441
afte	-13442
▁800	-13443
▁Wil	-13444
lande	-13445
nages	-13446
urger	-13447
▁Leur	-13448
▁Toen	-13449
▁buit	-13450
Arabie	-13451
raires	-13452
vorens	-13453
▁fixer	-13454
▁haine	-13455
▁leren	-13456
▁schen	-13457
▁0496/0	-13458
▁Strijd	-13459
▁Zouden	-13460
▁extern	-13461
courager	-13462
diterran	-13463
tionnels	-13464
▁Erdogan	-13465
▁circuit	-13466
▁drempel	-13467
▁litiges	-13468
▁morales	-13469
▁vervroe	-13470
chanismen	-13471
▁cruciaal	-13472
▁officier	-13473
▁requises	-13474
▁retrouve	-13475
▁biodivers	-13476
▁connexion	-13477
▁deelstaat	-13478
▁radicalis	-13479
▁argumenten	-13480
▁deelnemers	-13481
▁rekeningen	-13482
▁voorgedaan	-13483
▁evenementen	-13484
▁exploitants	-13485
▁investisseurs	-13486
66	-13487
81	-13488
cir	-13489
plas	-13490
rond	-13491
veil	-13492
▁110	-13493
▁Bang	-13494
▁omge	-13495
bation	-13496
iswaar	-13497
ouvrir	-13498
rukken	-13499
▁ontsn	-13500
▁pleeg	-13501
▁strik	-13502
arieven	-13503
optimis	-13504
▁defect	-13505
▁devenu	-13506
▁gehoor	-13507
▁illust	-13508
▁kijken	-13509
ceptions	-13510
▁doorver	-13511
▁gewaarb	-13512
▁ontmant	-13513
▁verwees	-13514
atisering	-13515
▁encourag	-13516
▁fietsers	-13517
▁primaire	-13518
▁relaties	-13519
▁survenus	-13520
▁uitgezet	-13521
introduire	-13522
▁carburant	-13523
▁krachtens	-13524
▁ministeri	-13525
▁verbieden	-13526
▁vervallen	-13527
agriculture	-13528
▁opgesloten	-13529
▁opsporings	-13530
▁overgegaan	-13531
▁Recentelijk	-13532
▁preventieve	-13533
▁essentielles	-13534
▁investissement	-13535
▁verplaatsingen	-13536
▁belangenconflic	-13537
TE	-13538
DAB	-13539
Toch	-13540
enst	-13541
lers	-13542
meur	-13543
rand	-13544
▁Gra	-13545
▁Wij	-13546
▁nan	-13547
▁rob	-13548
ffici	-13549
endies	-13550
gitime	-13551
ortium	-13552
▁beurs	-13553
▁meter	-13554
▁toont	-13555
▁bemidd	-13556
▁conven	-13557
▁vivent	-13558
▁endroit	-13559
▁inciter	-13560
▁lichten	-13561
▁visites	-13562
personnel	-13563
▁ingrepen	-13564
▁suicides	-13565
▁continuit	-13566
▁verscheen	-13567
▁traduction	-13568
▁werkzoeken	-13569
▁aangevallen	-13570
▁verplichten	-13571
▁probablement	-13572
▁Rijksregister	-13573
▁automobilistes	-13574
▁gecommuniceerd	-13575
▁ontwikkelingen	-13576
▁cybercriminalit	-13577
73	-13578
KCE	-13579
avi	-13580
atar	-13581
mmen	-13582
rdin	-13583
rijp	-13584
week	-13585
▁10,	-13586
▁ADN	-13587
▁chr	-13588
ctief	-13589
ectie	-13590
oemen	-13591
state	-13592
▁bras	-13593
▁neur	-13594
having	-13595
infirm	-13596
uderen	-13597
▁Libye	-13598
▁Pales	-13599
▁deleg	-13600
▁facto	-13601
▁inval	-13602
▁portu	-13603
moedigd	-13604
▁Dinant	-13605
▁ingang	-13606
▁ordonn	-13607
▁vrezen	-13608
beweging	-13609
▁twijfel	-13610
▁vrijdag	-13611
▁casernes	-13612
▁finances	-13613
▁moedigen	-13614
▁opgeleid	-13615
▁Onderzoek	-13616
▁coalition	-13617
▁hoofdstad	-13618
▁frauduleux	-13619
▁ingediende	-13620
▁toenmalige	-13621
▁overschreden	-13622
▁onderscheiden	-13623
investeringsplan	-13624
")	-13625
59	-13626
oie	-13627
ijkt	-13628
▁ING	-13629
mogen	-13630
▁Soir	-13631
▁fiet	-13632
▁pros	-13633
bemidd	-13634
tendue	-13635
▁domes	-13636
▁korps	-13637
▁modes	-13638
▁rijst	-13639
alender	-13640
antiers	-13641
levings	-13642
rechter	-13643
▁repres	-13644
▁saisis	-13645
▁seules	-13646
▁conduit	-13647
▁dangers	-13648
▁geraamd	-13649
▁retenus	-13650
atteindre	-13651
materiaal	-13652
passement	-13653
▁afleggen	-13654
▁consolid	-13655
▁ervaring	-13656
▁milliard	-13657
▁rapporte	-13658
▁rapporten	-13659
▁toilettes	-13660
▁bestudeerd	-13661
▁commissies	-13662
▁databanken	-13663
▁realisatie	-13664
▁vertrokken	-13665
▁onrechtstre	-13666
▁prestataire	-13667
▁tuberculose	-13668
▁opvangplaatsen	-13669
▁administrateurs	-13670
▁8,	-13671
▁At	-13672
sile	-13673
.)?2.	-13674
Comme	-13675
heers	-13676
jusqu	-13677
montr	-13678
rison	-13679
vertr	-13680
▁rode	-13681
▁vaar	-13682
iffres	-13683
naires	-13684
passer	-13685
premie	-13686
zoeker	-13687
▁duren	-13688
▁horec	-13689
▁postb	-13690
gularit	-13691
ticides	-13692
▁Rwanda	-13693
▁uitrol	-13694
▁voerde	-13695
ographie	-13696
straffen	-13697
▁lacunes	-13698
▁routier	-13699
▁figurant	-13700
▁voorwerp	-13701
▁begrijpen	-13702
▁verwachte	-13703
▁apothekers	-13704
▁intentions	-13705
▁rijbewijzen	-13706
▁schriftelijk	-13707
▁zwangerschap	-13708
▁vooropgesteld	-13709
55	-13710
htt	-13711
mat	-13712
▁62	-13713
▁ST	-13714
back	-13715
tage	-13716
tons	-13717
▁Dro	-13718
▁eID	-13719
Naast	-13720
vorde	-13721
woner	-13722
▁Verg	-13723
▁herh	-13724
aartoe	-13725
elland	-13726
princi	-13727
vatten	-13728
▁Child	-13729
▁Islam	-13730
▁Syste	-13731
▁capac	-13732
▁draag	-13733
▁lonen	-13734
▁revue	-13735
▁scand	-13736
▁Panama	-13737
▁Progra	-13738
▁discut	-13739
▁500.000	-13740
▁Federal	-13741
▁Gerecht	-13742
▁Sociaal	-13743
▁intitul	-13744
▁middell	-13745
▁suicide	-13746
▁uitstel	-13747
▁archives	-13748
▁souligne	-13749
▁autonomes	-13750
▁berichtte	-13751
▁beschermd	-13752
▁chantiers	-13753
▁ontvangst	-13754
▁weliswaar	-13755
rechtelijke	-13756
▁onaanvaard	-13757
▁recommande	-13758
▁technieken	-13759
▁uitrusting	-13760
▁begunstigden	-13761
▁pourcentages	-13762
▁explicitement	-13763
▁inschakelings	-13764
Apr	-13765
emp	-13766
▁9.	-13767
▁Bo	-13768
gler	-13769
nels	-13770
uide	-13771
▁Jan	-13772
▁MIP	-13773
▁Vis	-13774
alise	-13775
essie	-13776
▁dite	-13777
▁gens	-13778
▁stup	-13779
aisses	-13780
hospit	-13781
▁cloud	-13782
▁inste	-13783
▁parad	-13784
besliss	-13785
▁Durant	-13786
▁asbest	-13787
▁exempl	-13788
▁organe	-13789
▁vullen	-13790
levering	-13791
▁2018.1.	-13792
▁affirme	-13793
▁anciens	-13794
▁comprom	-13795
▁couvrir	-13796
▁overige	-13797
▁permets	-13798
▁rulings	-13799
oepassing	-13800
▁defensie	-13801
▁roerende	-13802
▁enveloppe	-13803
▁diversiteit	-13804
▁huisvesting	-13805
▁kunstwerken	-13806
▁provinciale	-13807
▁candidatures	-13808
▁kennisgenomen	-13809
▁dreigingsniveau	-13810
PB	-13811
TB	-13812
aby	-13813
ani	-13814
bew	-13815
▁("	-13816
-16'	-13817
alve	-13818
anes	-13819
▁Elk	-13820
▁Gre	-13821
▁Imm	-13822
otter	-13823
rager	-13824
ummer	-13825
▁Euro	-13826
▁OESO	-13827
▁bode	-13828
▁ence	-13829
▁gese	-13830
▁melk	-13831
▁wifi	-13832
akehol	-13833
tition	-13834
voyant	-13835
▁Union	-13836
▁homme	-13837
▁redes	-13838
▁openen	-13839
▁plaign	-13840
▁verble	-13841
olenbeek	-13842
▁beheren	-13843
▁geradic	-13844
▁verhaal	-13845
bezetting	-13846
maatregel	-13847
▁Francken	-13848
▁Medische	-13849
▁genoemde	-13850
▁piratage	-13851
▁primordi	-13852
▁recruter	-13853
estimation	-13854
identifier	-13855
▁aangiftes	-13856
▁moeilijke	-13857
▁verslagen	-13858
▁sanitaires	-13859
▁aansluiting	-13860
▁antibiotica	-13861
▁accompagnement	-13862
▁transformation	-13863
▁oorspronkelijke	-13864
IO	-13865
VB	-13866
fr	-13867
eth	-13868
CGRA	-13869
abri	-13870
groe	-13871
main	-13872
▁Nij	-13873
▁bad	-13874
▁ETCS	-13875
▁Elia	-13876
▁dues	-13877
irment	-13878
missie	-13879
volgen	-13880
▁Tunes	-13881
▁bande	-13882
▁colon	-13883
▁graff	-13884
▁matin	-13885
breking	-13886
sultant	-13887
▁Bulgar	-13888
▁russes	-13889
▁Belgian	-13890
▁Beliris	-13891
▁Univers	-13892
▁rurales	-13893
▁twintig	-13894
▁Landbouw	-13895
▁Noordzee	-13896
▁stakehol	-13897
▁teruggev	-13898
▁Republiek	-13899
▁ressorter	-13900
▁spreiding	-13901
▁entiteiten	-13902
▁provisions	-13903
▁sigaretten	-13904
▁climatiques	-13905
▁connaissent	-13906
▁inrichtingen	-13907
▁ongerustheid	-13908
▁structurelle	-13909
▁optimaliseren	-13910
▁rechtspersonen	-13911
▁technologische	-13912
SC	-13913
SF	-13914
fer	-13915
uin	-13916
▁Tr	-13917
eler	-13918
redi	-13919
▁1.0	-13920
▁alg	-13921
▁esc	-13922
▁gif	-13923
fiets	-13924
▁alar	-13925
▁liep	-13926
bussen	-13927
dering	-13928
opvang	-13929
▁musea	-13930
▁Impact	-13931
▁Michel	-13932
▁gerust	-13933
▁tenues	-13934
▁appelle	-13935
▁nourrit	-13936
▁tijdsti	-13937
▁vervuld	-13938
▁licences	-13939
▁onderaan	-13940
▁onwettig	-13941
▁speciaal	-13942
▁Evaluatie	-13943
▁honderden	-13944
▁aanvulling	-13945
▁opportunit	-13946
▁restaurant	-13947
▁middellange	-13948
▁regelmatige	-13949
▁stellingname	-13950
▁identificeren	-13951
▁prescriptions	-13952
▁significative	-13953
▁zorgverleners	-13954
▁psychologische	-13955
▁discriminations	-13956
Eu	-13957
not	-13958
▁mg	-13959
CGVS	-13960
exon	-13961
wijt	-13962
▁pom	-13963
ieerd	-13964
timid	-13965
vings	-13966
▁Cris	-13967
▁yeux	-13968
hangen	-13969
orique	-13970
ziekte	-13971
▁Bangl	-13972
▁Lutte	-13973
▁Verze	-13974
▁vesti	-13975
gularis	-13976
octobre	-13977
onniers	-13978
wijfeld	-13979
▁Tielen	-13980
▁authen	-13981
▁streef	-13982
▁utiles	-13983
dreiging	-13984
partners	-13985
▁prouver	-13986
▁solidar	-13987
▁verneem	-13988
traitance	-13989
▁dotaties	-13990
▁gedragen	-13991
▁onderver	-13992
▁ressorti	-13993
▁successi	-13994
▁verbindt	-13995
▁classiques	-13996
▁fonctionne	-13997
▁integreren	-13998
▁uitkerings	-13999
▁verminking	-14000
▁voorwerpen	-14001
▁familieleden	-14002
▁verschuldigd	-14003
▁aantrekkelijk	-14004
▁contrevenants	-14005
▁systematische	-14006
76	-14007
TR	-14008
▁x	-14009
▁DO	-14010
DRAF	-14011
chat	-14012
▁12,	-14013
▁BOB	-14014
▁Red	-14015
▁Str	-14016
compt	-14017
endra	-14018
tijde	-14019
▁FANC	-14020
arming	-14021
atoria	-14022
finies	-14023
grepen	-14024
levait	-14025
ouders	-14026
thique	-14027
▁Halle	-14028
▁group	-14029
▁rares	-14030
imposer	-14031
zitting	-14032
▁caisses	-14033
▁intelle	-14034
▁kazerne	-14035
▁limites	-14036
▁optimis	-14037
▁vreemde	-14038
Plusieurs	-14039
moignages	-14040
▁flamands	-14041
▁schaffen	-14042
mechanisme	-14043
▁meilleurs	-14044
▁monarchie	-14045
▁quartiers	-14046
▁identifier	-14047
▁mededeling	-14048
▁overgebracht	-14049
▁gemakkelijker	-14050
▁bedrijfswagens	-14051
▁verbintenissen	-14052
42	-14053
bul	-14054
olo	-14055
▁cur	-14056
▁nau	-14057
adesh	-14058
dites	-14059
duits	-14060
force	-14061
vende	-14062
▁paru	-14063
cijfer	-14064
digden	-14065
ekende	-14066
tudier	-14067
▁Qatar	-14068
▁enorm	-14069
▁eruit	-14070
bevoegd	-14071
shelter	-14072
▁batter	-14073
▁beveil	-14074
▁portef	-14075
Centraal	-14076
iserings	-14077
quitable	-14078
stenaars	-14079
ventives	-14080
▁foreign	-14081
▁pleiten	-14082
▁racisme	-14083
rdineerde	-14084
▁alvorens	-14085
▁besparen	-14086
▁effectue	-14087
▁inbegrip	-14088
▁maaltijd	-14089
gislatives	-14090
operatoren	-14091
toestellen	-14092
▁belastbare	-14093
▁beveiligen	-14094
▁inventaire	-14095
▁oneerlijke	-14096
▁Duitstalige	-14097
▁instruments	-14098
▁spoorwegnet	-14099
▁verlofdagen	-14100
▁cambriolages	-14101
▁intelligente	-14102
▁observations	-14103
▁prijskaartje	-14104
▁democratische	-14105
▁gouvernementale	-14106
91	-14107
Hier	-14108
alie	-14109
fast	-14110
obie	-14111
reis	-14112
▁Bus	-14113
ciden	-14114
grote	-14115
▁anne	-14116
▁merc	-14117
▁waak	-14118
consul	-14119
ijnsel	-14120
loyale	-14121
voeren	-14122
▁beurt	-14123
▁camer	-14124
▁deels	-14125
▁offsh	-14126
▁proth	-14127
oftware	-14128
ossiers	-14129
▁affili	-14130
▁filles	-14131
▁stijgt	-14132
▁vergez	-14133
▁vinger	-14134
Nochtans	-14135
goederen	-14136
▁horaire	-14137
▁pedelec	-14138
▁versoep	-14139
Administr	-14140
▁homoseks	-14141
▁promotie	-14142
▁signalen	-14143
▁subsidie	-14144
▁syndicat	-14145
inventaire	-14146
▁mensuelle	-14147
▁technisch	-14148
▁Bangladesh	-14149
▁Volkswagen	-14150
▁uitgevoerde	-14151
▁voorbeelden	-14152
▁rapatriements	-14153
▁teruggekeerde	-14154
▁onafhankelijke	-14155
oo	-14156
▁63	-14157
IRAS	-14158
Maar	-14159
ault	-14160
boom	-14161
cier	-14162
enti	-14163
gent	-14164
nies	-14165
onte	-14166
test	-14167
voet	-14168
▁Moy	-14169
dents	-14170
etsen	-14171
▁Geld	-14172
cidive	-14173
clarer	-14174
gences	-14175
offici	-14176
oorlog	-14177
▁Block	-14178
▁fumer	-14179
▁inuti	-14180
conform	-14181
factuur	-14182
▁Douane	-14183
▁allait	-14184
▁incont	-14185
▁marine	-14186
▁mascul	-14187
▁regelt	-14188
▁repose	-14189
etermijn	-14190
▁Amnesty	-14191
▁Laatste	-14192
▁cultuur	-14193
▁oeuvres	-14194
oornissen	-14195
operaties	-14196
▁bevonden	-14197
opposition	-14198
rekeningen	-14199
▁grondslag	-14200
▁mechanisme	-14201
▁exploitatie	-14202
▁uitdagingen	-14203
▁vergunningen	-14204
▁aanbestedingen	-14205
▁inspectiedienst	-14206
64	-14207
RS	-14208
mt	-14209
oeid	-14210
▁125	-14211
▁zon	-14212
glige	-14213
norme	-14214
oefen	-14215
trans	-14216
▁1996	-14217
▁biom	-14218
▁bond	-14219
▁nota	-14220
▁quai	-14221
▁rare	-14222
ONDRAF	-14223
annexe	-14224
endrez	-14225
ineerd	-14226
vliegt	-14227
▁barom	-14228
▁influ	-14229
Comment	-14230
clairer	-14231
ficatie	-14232
instant	-14233
▁Daarin	-14234
▁fusion	-14235
▁mineur	-14236
▁vernam	-14237
Internet	-14238
personen	-14239
▁Griekse	-14240
▁geluids	-14241
▁Toezicht	-14242
▁capitaux	-14243
▁exemples	-14244
▁panneaux	-14245
▁vacature	-14246
▁verhoudt	-14247
▁vermeldt	-14248
▁gesproken	-14249
▁succession	-14250
▁hospitalier	-14251
▁jaarrekening	-14252
uitvoerlegging	-14253
▁opeenvolgende	-14254
OI	-14255
ly	-14256
anje	-14257
ardi	-14258
▁Fam	-14259
▁Sen	-14260
▁War	-14261
▁dor	-14262
▁las	-14263
asses	-14264
atise	-14265
boete	-14266
eerde	-14267
iking	-14268
index	-14269
paren	-14270
▁CREG	-14271
▁Heel	-14272
▁alli	-14273
▁cuis	-14274
▁gain	-14275
Pierre	-14276
kennis	-14277
▁illic	-14278
▁relay	-14279
ffingen	-14280
grenzen	-14281
organes	-14282
poneerd	-14283
▁Emploi	-14284
▁conjug	-14285
▁intent	-14286
▁staten	-14287
▁surcro	-14288
▁treedt	-14289
▁verser	-14290
▁vivant	-14291
▁voegen	-14292
▁waarna	-14293
appropri	-14294
iculture	-14295
oefening	-14296
teerders	-14297
▁Twitter	-14298
▁ambacht	-14299
▁convenu	-14300
▁heffing	-14301
▁inhoudt	-14302
▁voordat	-14303
anchiment	-14304
▁artifici	-14305
▁bekijken	-14306
▁bewoners	-14307
▁fournies	-14308
▁pogingen	-14309
alisations	-14310
▁opportuun	-14311
▁taalgroep	-14312
▁toelating	-14313
▁Integratie	-14314
▁accueillir	-14315
▁gehandicap	-14316
▁onderdelen	-14317
▁religieuze	-14318
▁manquements	-14319
▁transitoire	-14320
▁distributeur	-14321
▁opvangcentra	-14322
▁voorbereiden	-14323
▁communautaire	-14324
aC	-14325
aud	-14326
ASTI	-14327
Somm	-14328
olpen	-14329
quant	-14330
▁Etes	-14331
▁poly	-14332
▁seni	-14333
bonden	-14334
curius	-14335
dadige	-14336
etwerk	-14337
opbouw	-14338
stoest	-14339
vlucht	-14340
▁bemoe	-14341
▁broch	-14342
▁bruto	-14343
▁fabri	-14344
▁masse	-14345
▁netto	-14346
▁noden	-14347
▁photo	-14348
archief	-14349
ignants	-14350
illages	-14351
▁Burger	-14352
▁connue	-14353
▁geblok	-14354
▁weeken	-14355
▁zijnde	-14356
▁afloopt	-14357
▁creuses	-14358
▁verdubb	-14359
agression	-14360
▁coalitie	-14361
▁cruciale	-14362
▁levering	-14363
▁vernamen	-14364
▁veronder	-14365
▁vraiment	-14366
getwijfeld	-14367
rieurement	-14368
▁douaniers	-14369
▁kwetsbaar	-14370
▁makkelijk	-14371
▁utilisant	-14372
▁2012-2013,	-14373
▁aangetoond	-14374
▁beantwoord	-14375
discriminatie	-14376
▁localisation	-14377
overschrijdend	-14378
▁hoofdzakelijk	-14379
igu	-14380
pay	-14381
zie	-14382
Midi	-14383
cles	-14384
ilde	-14385
naar	-14386
sous	-14387
▁Dan	-14388
▁Neu	-14389
▁rub	-14390
▁wan	-14391
timer	-14392
verde	-14393
walif	-14394
▁gast	-14395
agnose	-14396
ereerd	-14397
▁Gelet	-14398
▁parag	-14399
▁pluim	-14400
Central	-14401
annings	-14402
willige	-14403
▁invoer	-14404
zaamheid	-14405
▁2017?3.	-14406
▁aanhang	-14407
▁acheter	-14408
▁chinois	-14409
▁erfgoed	-14410
▁hiertoe	-14411
domadaire	-14412
▁competen	-14413
▁kazernes	-14414
▁leningen	-14415
▁officiel	-14416
▁paspoort	-14417
▁thuisver	-14418
▁voltijde	-14419
opportunit	-14420
▁Directive	-14421
▁circulent	-14422
▁eindelijk	-14423
▁identique	-14424
▁verlengen	-14425
▁frequentie	-14426
▁gereageerd	-14427
▁interroger	-14428
▁moeilijker	-14429
▁verzamelen	-14430
▁approfondie	-14431
▁stakeholders	-14432
▁transmission	-14433
Administration	-14434
▁infrastructure	-14435
600	-14436
;6.	-14437
fem	-14438
ize	-14439
osa	-14440
priv	-14441
rukt	-14442
▁Exp	-14443
▁Weg	-14444
▁ene	-14445
▁htt	-14446
annes	-14447
bromy	-14448
[...]
